00000000000000000000000000000000000000000000000000000000000000000000000000000000
00000000000000000000000000000000000000000000101000000000000000000000000000000000
00000000000000000000000000000000000000000000000000000000000000000000000000000000
00000000000000000000000000000000000000000001101100000000000000000101000100000000
00000000000000000000000000000000000000000000000000000000000000000000000000000000
00000000000000000000000000000000000000000000000000000000000000000000000000000000
00000000000000000000000000000000000000000000000000000000000000000000100100000000
00000000000000000000000000000000000000000000000000000000000000000000110000000000
00000000000000000000000000000000000000000000000000000000000000000010010000000000
00000000000000000000000000000000000000000000000000000000000000000101001000000000
00000000000000000000000000000000000000000001101100000000000000000000001100000000
00000000000000000000000000000000000000000010010000000000000000000001111000000000
00000000000000000000000001010001000000000000000100000000000000000000000000000000
00000000000000000000000001111001000000000000000000000000000000000101000100000000
00000000000110000000000001111001000000100000000000000000000000000010100000000000
00000000000000000000000000001101000000000000000000000000000000000000000100000000
00000000000000000000000000000000000000000000000000000000000000000001101100000000
00000000000000000000000000000000000000000000000000000000000000000010010100000000
00000000000000000000000001010001000000000000000000000000011011000000000000000000
00000000111010100000000000000001111011001111000000011011000010100000000000000000
00000000000000000000000000011011000000100000001000000000110110000000000000110110
00000000000000000000000000001101000000000000000000000000000010000000000000000000
00000000000000000000000000000000000000000001101100000000000000000000000000000000
00000000000000000000000000000000111010100000000000000000000000000000110000000000
00000000000000001010001000000000000010001110101001111001011110000000000000000000
11110010000011000101000000000000000000100100111000011100000000000000000000000000
00000010000000100000000001010001000000000111010111011000111100000000000000000000
00000000000000000000000000000001000000000000010000000010000010000000000000000000
00000000000000000000000000000000101000100000101000000000000000000000110000000000
00000000000000000000000000000000000110100000000000100100000110111101100100000000
00000000010110101010100000111100000100100011011000000000000110110000100000000000
00011000000000001111000000001000000010010000000000000011000000110000000100100100
00000010000000000000001000000000001001000111010111110000110110000000110000000010
00000000000000000000000000000000000000000000000000000000000000000110110000000000
00000000001101100101000100000000000100100001101101010001000000000000000000000000
00000110000000000111100011011000000000001010001100000000000000010100111000000000
01011101000000000000000010101000000000001101100000000011000000001111000000001001
00000001001010100000000000011000001001000000011000000000000000000000001001010100
00000010000000000000000000000000000011000000010001001110000110100000000000010011
00000000000000000101000100000000101000100000000000000000000000000000000000000000
01001000010100010010010000010010000010000000001100000011000010011010001010100010
01101100000000000010011110100010000000001101100000000000010100010000001000000000
00001101000000110110110010110100000000000001101000011100001101101111000001101100
00110110010110100000000000011010011011000101011110100010101000100000000000000000
00000010000000000000000000000000000001000000110100001000000010000001101100000110
10100010000000000010010000000000110110000000000001101100000000000000000000000000
00000110000111100000001111100000000000000001001000000000010100011110101000000110
00011011000000000101010111011010000100101111000000000000000000010000001000011011
00000000000000000101101011110000000000000011100000001001000100101101101000001010
00010010000110110000000001001110011101010000000011101010111010100001101010101011
00000000000000000000000000000000000000000000000000000000000000000101000100000000
00000000000000000001111100110110000110100000000000000011000010011010001000110110
00000000000111100101010000010100000111000000000000110110000010010000100000000010
00001001000100100110111111101100010010001011101000001001000000000000100101100100
10100010000111100000000110111100010100010000000000001101001101101111000000000011
00000010000000000000000000011010000011010000000000001000000110100001110100010010
00000000000000000110110000000000101000100000000000000000000000000000110100000000
00011011000000110000000100000000011011000000011010100010000000000001100000000000
00000011000001000110110010110100001010001110000101101011001111000101000100000000
00000000010110010001111111110010111100000000001001011101000010010000010000100100
00000000000000000000010010111100011011000100100010100010110110000101000000100100
00000000000000000000000000000010000000010000000000000000000000000000000000000010
00011011010100010000110100000000000000000000000010100010101000101010001000000000
01111000000011010101000100000000000111100111100011110010111100100001010000000000
01010001000011000111010101001011001110100110101000000011010100000111101011101010
01110000000000000111000000001000111010100011011000011011001101100000000001101100
00000000000001000000000000111001001001100000100000011000000000000000000000000001
00000000000000000110110000000000000000000000000000000000101000100101000100000000
01011101000000000110110100000000000010010110110011110000111100101010001000000000
00111001010100011101100000100101010101000010011100000000111100100110100100000000
01011011000000000111101010101000111010100000101101010101010100000000010001010000
00100111011101100000000001101110111100100000000011101010110110000000011001101100
00000000000000000000000000000110000000100000000000000000000000000110110000000001
01101100000000000010010000000000000000000000000011011000110110000000100100000000
00001100000000000000000001010010010101000111100100111110111100101010001001010101
00011011010111010101000000000011101011110101010100100100000000000111011111101010
01110000000000000101001000000000000000100101110110100010000000000011100100001000
00000001000000000000000000100111010100000000000001010000000000000000000000100111
00000000000000000000000000000000000000000000000000000000000000000000000000000000
01101111000001100000000100011011000000000101110101001000010011100000000101010001
00000000011011001111000001110101010100010111010101100011000000000100111000000011
00100100001010000000001011000110101000100111010101010001101000110000110101010000
00000000101000100000110101010001001111000000010000000000001101100000100000011011
00001000000000000000000100000100000110000000000000000000000000000000000000000100
00000000000000000000000010100010000000000000101000000000000000000000110000000000
00000000001111101110101000000000000000100101000100110110000000001010001001110110
11011000011011001111001001110000101000100000110001010001000000110110111011011001
00001100000000000010010000000000000101000010100000000000000000001110101100001000
01001000110110100000110100011110000000000000000000000001011001010000100000001001
00000000000000000000000000000000000000100000000000000000000000010000000000000000
00000000001101100000000001100011001101100101000100000000011011001010001100000000
00000000000110111101100001110110000101000000110100111100011011000000100000001101
00011000000000010010111100001001101101000111010110100101000010100000111011110010
10100011111010100000000000001011000000000000010000100111000000001111001000000000
00000110000101000000000000000000000000000000000000000001001001000000000000000000
00000000000000000000000000000000000000000000001100000000000000000000000000000000
00000000000000100001001000011101101010110101000110100011000011011110101000100100
00000000011101100001101000001101111100100000000001010000001001110110010111011100
00000011101000100000000000000001000000000001111100011101000000001110101100001000
11110000000000000000000000000000000000000011011000011100000010010000011000000000
00000000000001100000000000000000000000000000000000000110000001000101000100000000
10100010000000000000000011011000000000001010001000011011011011000000000000000000
00010010010100011111001000000000000000011010001011011000000001001010101001110101
00010010000000001010001000001101000010000101101000011010000000111011111101001110
00010010000000001010001000001010000000110000000100000001000000110000100000000000
00011000101001000000100000000000000000000000011000111010011101010000000000000011
00000000000000000000000000000000000000000000000000000000000000000000000000000000
00010010000001101110101000011000000110110000000000001101010100011110101000000000
01001110000010010001010001111000000000001111001001001000000011000000001000101000
10110100000000100011011001111000000000001010010101010001011101010000000000000010
00110110000000001110110000000000001001111110101000011011010100010000000000000000
00000000000100100000000000000000000000010000000000000110000011000000000000000000
00000000101000100000000000000000000000000000000000000000010100010000000000000000
11110000000010010101000001010011000000011111001000101000011101100000000000011100
01010000000000000000000001111001000000110100101001001000000000110000000000001001
00000010000001101111000000011111010100011101100000011011011011010010011100110110
00000110000000000001101000010010001001000000001000000001000000010000000000000000
00000000000000000000000000000000000000000000000000000000000000000000000000000000
00000000000100101010001011011000000000001010001000001001000000000001101100000000
10101000000000000001010001101100010101010000001000000000000010010001101100100100
00111110101000100000000000101000000110110000000000000000000000000000011000000001
00111110010100011111001000000100010100010000000000001001000010010000001100010100
00000000000100100000001000000000000000010000000000011000000001000110110000000000
00000000000000000000000000000000000000000000000000000000000000000000100100000000
01001000000000100000000001001000000100100011011000000000011101010010100000000010
00000000000000001011011000011011010100010011011010100010000010101110101001010010
11011110000000000011011000000011010110100000001000000000010101110110110000000000
00000010000000000101000000000000000000000000000000000000001001110000000000000000
00000000000000000000000000000000000000000000000000000010000000000000000000000000
00000000110110000000000000000000000000000000000001010001000000000101000111011000
11011000000000100001010110110100011011000000000000000100000000000000000101101100
00000000000010010000100000000010000110110000000000000110000000000000000000000100
00000000000000011110101000000000000000010110110000001001000110110000010011101010
00000011000000000000001000000000000000000101001000000010000000000000000000000000
00000000000000000000000000000000000000000000000000000000000000000101000100000000
00000000010010000111010100000000000000000000000001101100111010100000000000000000
00000000011011000000000011011000011110000000000000100101000100100100100001010011
00001000001001010000000000011010000011000000000000000001000000000011111000000001
01110101101001100000000000000000000000000000000000000110000000000000000000011000
00000000000000000000000000000000000000000000000000000000000000000000100100000000
00000000000000000000000000000000000000000000000000000000000000000010011100000000
01110101001110000110110000000000000000000000000001101100111010100000000010100010
01101100000100100001111000000000000000001111000000001101111100100000001011110010
01101111000000000000100100000000000000000001101000000000110110000000000000001000
00000100000000000000000000000000000000000000000000000000000000000000000000000000
00000000000000000000000000000000000000000000000000000000000000000101000100000000
00000000000000000000000000000000000000000000000000000000000000000000110000000000
01110101000000000111010100000000000001100000000000000000000000000000000000000000
01111001001111000111100000000000000000000001001000000000000000000000000000000000
00001101000000000000110100000000000000000000000000000000000000000000000000000000
00000000000000000000000000000000000000000000000000000000000000000000000000000000
00000000000000000000000000000000000000000001101100000000000000000000100100000000
00000000000000000000000000000000000000000000000000000000000000000000100100000000
00000000000000000000000000000000000000000000000000000000000000000000000000000000
00000000000000000000000000000000000000000000000000000000000000000000000100000000
00000000000000000000000000000000000000000000000000000000000000000000000000000000
00000000000000000000000000000000000000000000000000000000000000000010010000000000
