00000000
00000000
00000000
00000000
00000000
00000000
00000000
00000000
00000000
00000000
00000000
00000000
00000000
00000000
00000000
00000000
00000000
00000000
00000000
00000000
00110110
00000000
00000000
00000000
00000000
00000000
00000110
00000000
00000000
00000000
01101100
00101000
00000000
00000000
00000000
00000000
01010001
00000000
00010011
00000000
00000000
00000000
01010001
00000000
00000110
00000000
00000000
00000000
00001010
10101110
00000000
10100010
00001001
01100100
00000100
00010010
00000000
00000000
00011110
00100100
00100100
00000010
00110110
00000000
11101010
01101100
00000001
00000000
00000000
00000000
00011010
01010001
00000001
00000000
01011011
11101010
10101010
00100111
00000000
01010001
00000100
01010000
00000000
00000100
00000000
00100100
11011001
00001000
01110101
00000000
00011011
00000011
01010000
00011011
00000000
00000000
00001100
10100110
00100011
00011011
00000000
00000000
01110101
01001110
00000000
00000011
00000000
01101100
00011100
00011000
00000110
00000000
00000000
00000100
00001101
00000000
00000010
00000000
01010001
01010001
00000000
00010100
00000000
00000000
00000010
01011011
00000000
00000000
00000000
00000000
01010001
00101000
11011000
00000000
00000000
00000000
01010001
00000001
00011000
00000000
00000000
10100010
11110010
01010000
00000000
00000000
00000000
00000000
00000000
00000000
00000000
00000000
00000000
00000000
00000000
00000000
00000000
00011100
00011011
00000000
00000011
00000001
01011010
00000000
00000000
00000001
00001001
01010001
00000011
00000100
01101100
00000001
00000000
00000000
00100100
00000000
00000000
00000000
00000000
00001100
00000000
00000000
00000000
00000000
00011011
00000011
00110110
00001000
00000000
00000100
00001001
00000001
10101010
11011010
00000000
00000000
00000100
01001000
00000110
00111110
00000000
00100100
00000000
10111100
10101000
00000000
00000110
00000000
10100010
10100100
00000011
11110010
00000000
00000001
00011000
01110101
10110101
00001000
00011011
10100010
10101000
00101000
01001000
00000000
00000000
00000000
01110100
10100011
00000000
00001001
00000000
11011000
00100111
00010011
00000000
00000000
00000000
01101001
10100110
00001000
00000000
00001001
11011110
00100110
11110001
00000010
00000000
11011000
00000010
10100110
01010000
00000000
00000011
01001110
01110010
01001110
00000010
00000000
11011000
00000010
11100001
00000000
00000000
00000000
00011000
00000000
00000000
00000000
00000011
00000001
00000000
00000000
00001101
01010001
00001001
00001010
00001001
00000000
00000011
00000000
01010100
00001101
01001110
00100100
00000000
01111001
01101100
00000000
01010001
00000001
00000000
00011110
00000000
10110100
00011010
00000000
00000000
00000011
10100010
00110110
00000000
00001001
00000000
00000000
00000000
00000000
00000000
01011101
01010001
01010100
00000011
00000001
01010001
00000000
00000000
00000000
00000000
00000000
00000000
00000000
00000000
00000000
00000000
00000000
00000000
00000000
00000000
00000000
00000000
00000000
00000000
00000000
01110101
00000001
10111010
00000000
00000000
01010001
01011011
10100010
11110000
00000000
00000000
01010100
01010001
00000000
00011000
00000000
00000000
00000000
00000001
10101000
00000010
00000000
00000001
00001001
00110110
01001000
00000000
00011011
00100100
00000000
00000000
00011010
00000000
00000000
01010010
00000001
11011110
00000010
00000000
00000000
00000110
00000000
00011000
00000000
11011000
11110010
00111110
00000000
00000000
10100010
11110010
11110010
00000000
00010010
00000000
11110000
00001000
00000000
00010010
00000000
10100010
00001000
00011011
00000000
01010111
00000001
00000000
00011011
00000011
00110110
00100110
00000000
00001100
00011100
00011100
00001001
00000100
01101100
00000000
00001101
00000000
01110000
00000000
00001100
01010001
01010101
00000000
00001101
00000000
01101100
01101100
00000011
01011010
00000000
01110101
01101101
00000000
01011101
00001001
00000000
00000000
00001010
01010001
01101101
00000000
00000000
01111001
10100010
00011011
00000011
00000000
00000000
00011011
00000000
00100100
00000000
00000000
00011010
00000010
00000000
00000000
00000000
00000000
11110010
00001000
00011010
00000000
00000000
00000000
00000000
00000110
00000000
00000000
00000000
00000000
00000000
00000000
00000000
00000000
00000000
00000000
00000000
00000000
00000000
00000000
00000000
00000000
00000000
00000000
00000000
00000000
00000000
00000000
00000000
00000000
00000000
00000000
00000000
00000001
00110110
00000000
00000000
01011010
00001101
00001010
00011000
00000000
01101100
00000001
00011011
10100010
00001000
00000000
01010100
00011011
00000011
11011000
00000000
00011011
00000000
00001001
00000000
00011000
00000000
00001100
00000000
01010010
10100010
00000010
00011011
00000000
00011101
01101100
11101011
00000000
00000000
11110010
00000000
00000001
00000110
00000000
11110000
00011011
00001010
11011001
00000000
11011000
00000110
00100100
10100010
00001000
00000000
00001000
01010001
00000000
01001110
00000000
10100010
10100100
00011101
00000000
00000000
00000000
00000000
00011010
00000000
00001001
00000000
00000000
00110110
00011101
00100001
00001001
00000000
00000000
11101010
00010100
00001010
00110111
00000000
10100110
11110010
01110111
00011100
00000000
01011010
00000000
00000000
00011110
11011001
00000000
01101100
10100010
00000000
00001010
00000110
01010001
00000011
00000000
00000011
11011000
00000000
00000000
00000000
00000010
00000001
00000000
00000000
00000011
00000011
00000000
00000000
00000000
00000000
01011110
00100101
00110110
00000000
00000000
00000000
01011110
00000001
00000000
00000000
00000000
00000000
00000000
00000000
00000000
00000000
00000000
00000000
00000000
00000000
00000000
00000000
00000000
00000000
00000000
00000000
00100100
00000000
00000000
00000000
00000000
01010001
00000000
00000000
00000000
00000000
00000000
00000000
00000000
00000000
11011000
00000010
00000000
00000000
00000000
10100010
11101100
01101100
00001101
00000000
00000001
10100010
00000000
01101100
00000001
01010100
00000000
10110100
00010100
00001100
00000001
00001001
11101010
01010000
00011000
00000100
00000000
00110110
11011010
00001000
00000000
00000000
10100010
00110110
01001110
00000000
00000000
00000000
00010010
10111101
00000010
10100010
00000000
00000000
01101100
01001100
00000100
00010010
00000000
01010001
01110110
00100001
00000000
00000000
00000000
01010001
00001101
00001010
00000100
00011011
01110101
01111001
01011000
00001010
00000000
00000011
01010001
00100101
00101000
00000000
00011011
00000000
00001100
01101100
00001101
00000000
00000000
01010001
00000001
01111001
10100010
00000000
00000000
00000000
00000010
00000011
00010010
00000000
00000000
01001110
00000010
11110000
00000010
00000000
11101010
10101010
00000000
00000010
00000000
00000001
00001000
00000000
00000000
00000000
00001001
10100010
10101010
00000110
00000011
00011011
00000000
00000000
00000000
00000000
00000100
00001001
00000000
00000000
00000000
00000000
00000000
00000000
00000000
01001000
11110010
00000000
00011011
00000011
00000000
00110110
00000000
00011011
00000000
00000000
00000000
00000000
00000000
00001100
00000000
00000000
00000000
00000000
00000000
00000000
00000000
00000000
00000000
00000000
00000000
00000000
00000000
00000000
00000000
00000000
00000000
00000000
00000000
10101010
00000000
00000000
00000000
11011000
00001000
00000010
00000001
00000000
00000000
00001000
00010010
00001011
00100100
00000000
00010010
00000000
10100010
00001001
00001001
10100010
00001000
00000011
00000000
01110101
00000100
11101010
00011011
00010011
00000000
01110110
00000000
00011010
00011011
01001000
01010001
00001101
10100010
00000010
00100101
11110000
01101100
00000001
00000000
01111000
00111010
11101010
00100110
00000000
00001001
00100111
11101100
11110000
00000010
00000000
00000000
10101011
00000010
11110010
00000000
00000000
01011010
10101000
00111100
00000000
00000000
00001000
10100010
00011101
00000000
00000010
00110110
10101010
11011000
00000000
00000000
00000000
10101011
11110010
00000010
00000000
00000000
00000000
11011001
00000110
00011110
00000001
00000000
00011011
00000001
00000000
00011011
00000001
00000000
00011100
00000011
00001001
00001001
00000000
00000000
00001101
00011011
01010001
00000001
00000000
00010010
01010001
00001001
00000000
00000000
00000000
00000000
00000011
00000001
00000000
00000000
00110110
01010100
00000100
00000000
00000000
00000000
00000000
00000000
00000000
00000000
00000000
00000000
00000110
00000000
00000110
00000000
00000000
00000000
00000000
00000000
00000000
00000000
00000000
00000000
00000000
00000000
00000000
00000000
00000000
01010001
00000000
00000000
00000000
00000000
00011011
01111001
01111000
00000100
00000000
00000000
01110101
00100111
00001001
00000100
00000000
00000000
00110110
00000110
01101111
00000000
00000000
00000000
10100100
00100100
00001001
00000000
00000000
01001110
00001000
00000010
00000000
00000000
00111100
00111000
11011110
00010100
00000000
10100010
10100010
11110010
01010000
00001000
00000000
00000000
11110000
11110000
11100000
00001000
00000000
00000000
11011000
01010000
11100000
00000000
00000000
00000000
00011001
00000010
00010011
00000000
01011010
11000110
10100100
01110101
00000000
01010001
00000000
00000001
00000010
00001101
00000000
01011010
00001001
00000000
01101100
00000000
00110110
00000100
00000001
00000000
00100100
00000000
01110010
00100111
00110110
00000000
00000000
10100010
00011011
01011110
00000000
00000000
00000000
00010010
00001101
01010101
01010101
00000000
00000000
00000010
00101000
00001101
00000001
00000000
10100010
01101110
01110000
00000000
00000000
00000000
01001000
01110101
01010101
00000001
00000000
00000000
00011000
00100101
00000001
00000000
00000000
00000000
11011110
00000000
00000000
00000000
00000000
00000000
11101010
00001000
00000000
00000000
00000000
00000000
00000000
00000000
00000000
00000000
00000000
00000000
00000000
00000000
00000000
00000000
00000000
00000000
00000000
00000000
00000000
00000000
00000000
00000000
00000000
00000000
00000000
00000000
00000000
00000000
00000000
00000000
00000000
00000000
00000000
00000000
00000000
00000000
00000000
00000000
00000000
00000000
00000000
00000000
00000000
10100010
00000010
00000000
00000000
00000000
00000000
10110100
01010000
00000000
00000000
01011010
00001100
00000000
00000000
00000000
00000000
00011011
00000100
00001100
00000000
00000000
01010101
01101111
00001001
00001010
00000000
01101100
01010010
01011010
00101000
00000000
00000000
00101000
00000000
01111000
01101100
00000000
01101100
00000001
00000011
01111000
00001100
00000000
00100111
00001100
01001110
01011110
00000000
01010001
00001101
11011110
00001000
00001001
00000000
00011011
00000000
01001110
01101100
00000001
00000000
00000000
10101000
00000010
01110000
00000001
00000000
00000000
01010000
01110001
00000000
00000000
00000000
11101010
00011101
00000000
00000000
00000000
11011000
10111100
00110110
11011000
00000000
00000000
00011000
00001000
00111110
00011000
00000000
10100010
11101100
10100010
11110010
00000010
00000000
01001110
10100100
10100100
01010000
00000000
00000000
00110110
00010100
10101000
00001000
00000000
01010001
10100010
00000000
11110000
00000000
00000000
00000100
00000000
00000000
00000000
00000000
00000000
01110101
00000001
00000000
00000000
00000000
00000000
01011110
01111001
00000000
00000000
00000000
00000000
00000000
00000000
00000000
00000000
00000000
00000000
00000000
00000000
00000000
00000000
00000000
00000000
00000000
00000000
00000000
00000000
00000000
00000000
00000000
00000000
00000000
00000000
00000000
00010100
00000000
00000000
00000000
00000000
01101111
00000000
00000000
00000000
01001000
00000000
00000000
00000000
00000000
00000000
00000110
00000000
00110110
00000000
00000000
00000000
00000000
00101101
01010001
00000011
00000000
00011011
01010001
00000000
01010001
00000001
00000000
00000100
11011000
00000000
00001001
00000000
00000010
01010100
01001000
00001101
00000000
00000000
01111000
01110101
00000000
00100100
00000000
00000000
00000000
00000011
01110101
00001101
00000000
00000000
01110101
00001100
00000000
00000000
00000000
00111100
00001010
00000000
00011010
00000000
00010010
01010001
00000100
00010010
00001000
10100010
00000010
01011010
10100110
00011010
00000010
00000000
01011010
00000001
00000110
00110110
00000000
00000010
00001100
00000010
00000000
00000110
00110110
00000000
00000000
00000000
00000000
00000000
01011001
00000000
00000000
01101100
00000110
10100010
00000011
00000000
00000110
00000000
00000000
00000000
00000000
00001001
00000000
00000000
00000000
00001000
01010001
00001010
00000000
00000000
10100010
00000010
01010010
00011100
00000000
00000000
01001110
00001000
00000000
00000000
00000000
00000000
00000000
00000010
00000000
00000000
00000000
00000000
00000000
00000000
00000000
00000000
00000000
00000000
00000000
00000000
00000000
00000000
00000000
00000000
00000000
00000000
00000000
00000000
00000000
00000000
00000000
00000000
00000000
00000000
00000000
00000000
00000000
00000000
00000000
00000000
00000000
11101010
00000010
00000000
00000000
00000000
00000000
00010010
00000110
00000000
00000000
00011000
00011011
00001101
00000110
00000000
11011000
01010001
00101000
10100010
00000010
00000000
00000010
01100011
00011100
00110110
00000000
00000000
00011011
00001001
00000000
00001000
00000000
00000000
00000000
00000000
00000001
00000000
01010001
00001001
00000001
01011110
00000001
00000000
01111000
10101110
00011110
01101101
00000000
01010001
00001010
01101100
01010101
00000100
00000000
01011010
00000000
00011011
00000000
00000110
00000000
00000000
00000000
00100110
10100010
00000000
00000000
00000000
00000000
11011000
00010100
00000000
00000000
00000000
00001001
10101000
00000010
00000000
00111000
00000000
00110110
00111100
00000000
00000000
00010010
10100100
00001000
00000010
00000000
11101010
01010000
00011010
00011000
00000000
00000000
10110100
11100000
00001000
00000000
00000000
11011000
00000000
11011000
00001000
00000000
00000000
10100010
00000000
00010010
00001001
00000000
00000000
00000000
00011000
01101100
00000001
00000000
01010001
00000011
01011011
00001101
00000000
00000000
01101100
01111001
00001101
00000000
00000000
00000000
00000000
00000000
00000000
00000000
