memory_initialization_radix=16;
memory_initialization_vector=
00000000000000000000,
00000000000A00000000,
00000000000000000000,
00000000001B00005100,
00000000000000000000,
00000000000000000000,
00000000000000000900,
00000000000000000C00,
00000000000000002400,
00000000000000005200,
00000000001B00000300,
00000000002400001E00,
00000051000100000000,
00000079000000005100,
00180079020000002800,
0000000D000000000100,
00000000000000001B00,
00000000000000002500,
000000510000006C0000,
00EA0001ECF01B0A0000,
0000001B020200D80036,
0000000D000000080000,
00000000001B00000000,
00000000EA0000000C00,
0000A20008EA79780000,
F20C5000024E1C000000,
020200510075D8F00000,
00000001000402080000,
00000000A20A00000C00,
000000001A00241BD900,
005AA83C1236001B0800,
1800F008090003030124,
020002002475F0D80C02,
00000000000000006C00,
00365100121B51000000,
060078D800A300014E00,
5D0000A800D80300F009,
012A0018240600000254,
020000000C044E1A0013,
00005100A20000000000,
4851241208030309A2A2,
6C0027A200D800510200,
0D036CB4001A1C36F06C,
365A001A6C57A2A20000,
02000000040D08081B06,
A2002400D8006C000000,
061E03E000120051EA06,
1B0055DA12F00001021B,
00005AF000380912DA0A,
121B004E7500EAEA1AAB,
00000000000000005100,
00001F361A000309A236,
001E54141C0036090802,
09126FEC48BA09000964,
A21E01BC51000D36F003,
0200001A0D00081A1D12,
00006C00A20000000D00,
1B0301006C06A2001800,
03046CB428E16B3C5100,
00591FF2F0025D090424,
000004BC6C48A2D85024,
00000002010000000002,
1B510D000000A2A2A200,
780D51001E78F2F21400,
510C754B3A6A03507AEA,
70007008EA361B36006C,
00040039260818000001,
00006C00000000A25100,
5D006D00096CF0F2A200,
3951D825542700F26900,
5B007AA8EA0B55500450,
2776006EF200EAD8066C,
00000006020000006C01,
6C0024000000D8D80900,
0C00005254793EF2A255,
1B5D5003AF55240077EA,
70005200025DA2003908,
01000027500050000027,
00000000000000000000,
6F06011B005D484E0151,
006CF075517563004E03,
242802C6A27551A30D50,
00A20D513C040036081B,
08000104180000000004,
000000A2000A00000C00,
003EEA0002513600A276,
D86CF270A20C51036ED9,
0C00240014280000EB08,
48DA0D1E000001650809,
00000000020000010000,
003600633651006CA300,
001BD876140D3C6C080D,
18012F09B475A50A0EF2,
A3EA000B00042700F200,
06140000000001240000,
00000000000300000000,
0002121DAB51A30DEA24,
00761A0DF200502765DC,
03A20001001F1D00EB08,
F000000000361C090600,
00060000000006045100,
A20000D800A21B6C0000,
1251F20001A2D804AA75,
1200A20D085A1A03BF4E,
1200A20A030101030800,
18A4080000063A750003,
00000000000000000000,
1206EA181B000D51EA00,
4E09147800F2480C0228,
B402367800A551750002,
3600EC0027EA1B510000,
001200000100060C0000,
00A20000000000510000,
F009505301F22876001C,
50000079034A48030009,
0206F01F51D81B6D2736,
06001A12240201010000,
00000000000000000000,
0012A2D800A209001B00,
A800146C550200091B24,
3EA200281B0000000601,
3E51F204510009090314,
00120200010018046C00,
00000000000000000900,
48020048123600752802,
0000B61B5136A20AEA52,
DE0036035A0200576C00,
02005000000000270000,
00000000000002000000,
00D800000000510051D8,
D80215B46C000400016C,
000908021B0006000004,
0001EA00016C091B04EA,
03000200005202000000,
00000000000000005100,
0048750000006CEA0000,
006C00D8780025124853,
0825001A0C0001003E01,
75A60000000006000018,
00000000000000000900,
00000000000000002700,
75386C0000006CEA00A2,
6C121E0000F00DF202F2,
6F000900001A00D80008,
04000000000000000000,
00000000000000005100,
00000000000000000C00,
75007500060000000000,
793C7800001200000000,
0D000D00000000000000,
00000000000000000000,
00000000001B00000900,
00000000000000000900,
00000000000000000000,
00000000000000000100,
00000000000000000000,
00000000000000002400;