memory_initialization_radix=16;
memory_initialization_vector=
00000000000000000300,
00000000000A00000000,
00000000000300005A00,
00000000000000005100,
00000000000000005400,
00000000000000000100,
00000000000300005100,
00000000000000000300,
00000001000000005100,
00000000000000006C00,
00000000000000000C00,
00000000000000000000,
00000051000300000100,
00000079000000005100,
00120076020006000D00,
00000004000000000000,
00000000000000001E00,
00000000000000005200,
0000005A000000510000,
00D8005B4AF01B0D0000,
0000001B020200D80000,
00000004005100140000,
00000000000000000000,
00000000B40100000000,
0000000008EA75540000,
F203F202004E25000300,
0000005A0075D8DE0000,
00000001000402025100,
00000000000000000000,
000600001A00271BA300,
0009BA4E004800000651,
0609F2531B00000C0024,
06010200242448EA0D00,
00000000000000005100,
00A200A24E0951000300,
020070D800A224091800,
5A1E00BAD8F01B00BC00,
01000008000800360254,
020000000D03181A0013,
00000000000900000300,
4E5724B408000309A2A2,
6C001EAA003C1E00A400,
28396CB406180136E06C,
A251033E6C59A3A80001,
00000000040102020006,
D8002400D80000000000,
00511E0800B40400F000,
1B4270D800EA00010251,
09005BF251AA0A003801,
001B001A750048D818AB,
00000000000000001E00,
000004361A360009A236,
000351121BB4A2090800,
091278EC48181E010C64,
360055BC51005100F204,
020000080D001A180213,
00007500D80000000000,
001B01006C06A2A24E00,
0C0A51B40AE11A365100,
000279F2EA0227023A09,
00000C186C3CA2A21A24,
00000002010000001B02,
005128000000A2A20000,
78791B000D24F2F21400,
510C6CEA396A0C507AEA,
79007008EA370400D86C,
0004003626061800000A,
00006C00000300000000,
5D006D6C006CF0F20000,
0351D8766F281BF26900,
76017A06140E04F2041A,
2878006EF200EAD8026C,
00000001020002000001,
6C0027000000A2D80000,
5D00360100790250A255,
1B5D50510D5509A277EA,
760001000276E1123908,
0100002750011A000024,
00000000000000000000,
1EA2001B005DEAF0005A,
006CDE28797851004E54,
250D08BDD86E0C010D50,
04D85E51080D00361A00,
02000104140006090004,
00000000000000000900,
001AD803025DA200A225,
006CBA5EA6031D006ED9,
27007500085D0036EE1A,
36E00D0012000465086D,
00000000021B00015A00,
0036366312000051001B,
0051D876B6043E00080C,
18042F09B41BA2520CF2,
A3F0010000030C01F21B,
06380000360001240000,
00000000000900000000,
12023653A251A204EA0C,
0001080DF251505E63A6,
03A2010008792300D902,
A2000000003601000800,
00060000000006045100,
A21200D851001B6C0000,
1251F21ED9A2DE551A75,
1804000D066C501EA24E,
000002040301010A0800,
1A020601000639750003,
00000000000300005500,
0006D8001B000D544800,
A80C507501B6D8280000,
0000D870360051520012,
DA00DA0000A21B6C0006,
00120000000000040000,
00D80000000000000000,
F009F25301F20C5E0201,
BC000079004A1203030D,
1A064E1C09A21B527800,
06031A120912A3510000,
00020000000000000000,
0057A2D800A25A510000,
A80050515B3803091B51,
3EA2360D010006002101,
5000F20451000C0C0C12,
00120200010018040000,
00000000001E00000900,
4802004800D80075271D,
0000B66C6C080000EA51,
A8003603000809695101,
02004E000100A2250000,
00000000000002000000,
00A20000000051005100,
060204B451005200045A,
A478080201000000000D,
0001EA000052006C03EA,
0C000200000108010002,
00000000000000000900,
004E240036006CEC00A2,
006C00EA030024124800,
08240008010001003E01,
75040000000006000048,
00000000000000001B00,
00A20000000300000900,
78DA6C0000006CF000A2,
52005E00004E285008F2,
75000000001A00D8001A,
04000000000000000000,
00000000005100000000,
00000000000000001B00,
78001B00000000000000,
79007800001200000000,
0D000D00180000000000,
00000000000900005100,
00000000000000001B00,
00000000000000000100,
00000000000000005100,
00000000000000005E00,
00000000000000000000,
00000000000000001E00;