00000000000000000000000000000000000000000000000000000000000000000101000100000000
00000000000000000000000000000000000000000000000000000000000000000000100100000000
00000000000000000000000000000000000000000000000000000000000000000000000000000000
00000000000000000000000000000000000000000000000000000000000000000101000100000000
00000000000000000000000000000000000000000000000000000000000000000101000100000000
00000000000000000000000000000000000000000000000000000000000000000000000000000000
00000000000000000000000000000000000000000000000000000000000000000001101100000000
00000000000000000000000000000000000000000000000000000000000000000000000000000000
00000000000000000000000000000000000000000000000000000000000000000001110000000000
00000000000000000000000000000000000000000000000000000000000000000000000000000000
00000000000000000000000000000000000000000000000000000000000000000000000100000000
00000000000000000000000000000000000000000000000000000000000000000000000100000000
00000000000000000000000000000000000000000000000000000000000000000000000000000000
00000000000000000000000001111000000000000000000000000000000000000110110000000000
00000000010010000000000001110110000001100000000000000000000000000000110100000000
00000000000000000000000000000001000000000000000000000000000000000001101100000000
00000000000000000000000000000000000000000000000000000000000000000000101000000000
00000000000000000000000000000000000000000000000000000000000000000000000000000000
00000000000000000000000000000000000000000000000000000000010100010000000000000000
00000000000001100000000000001001010010101110101000011011000010100000000000000000
00000000001110000000000001110101000000100000001000000000001101100000000110100010
00000000000000000000000000000011000000000000000000000110000110000000000000000000
00000000000000000000000000000000000000000000000000000000000000000000001100000000
00000000001101100000000000000000110110000000000000000000000000000000100100000000
10100010010100010000000000000000000010001011010001111000000011000000000000000000
11110010000000110101000000010100000000100001100000011110000000110000000000000000
00000000000000000000000001010001000000010111010111011000111100000000000000000000
00000000000000000000000000000001000000000000010000000010000010000000000000000000
00000000000000000000000000000000101000100101000100000000000000000000000100000000
00000000000001100000000000000000000110100000000100100100000000001010001000000000
00000000000000000011110000111100000100100000000000000000000000000001100001010001
01001110000010101111000001101110000000000000000000000000000000000000000000100100
00001000001101100000001000000000000010010110110011101100110110000000110111011000
00000000000000000000000000000000000000000000000000000000000000000001101100000000
10100010110110000101000110100010010010000001101101010001000000000000000000000000
00000110000000000101000100110110000000001010001000100100000010010100111000000000
01110101000000000000000010101000101000101110000001010001000000001110110000001110
00000100000011110000000000011000000010010000011000000000000000000000001001010100
00001000000000000000000000000000000010100101010001001110000110100000000001001001
00000000000000000000000000000000000000000000000000000000000000000000000000000000
01001110000000000000100110110100000010000000001100001100000010011101100000000000
01110101000000000001101110101010000000110011110000000000000000001011011000000000
00101000000001010111010110110100000000001011110000000001001101101011010000011011
10100010010100010000000000111110010100010101011110100010101000100000000000000000
00000000000000000000000000000000000001000000001100001000000000100000000000000110
10100010000000000101101000000000111010100000000001010001000000000000000010100010
00000000000000110000001110101010000000000001001000000011010100011111000000000000
01101100010000100101010111011110101000101111000000011011000000000000001000000000
00001010000000000000100111110010010100011110000000001001000000000000000000001101
00000000000010010000000001001110011101010000000001001000110110000001101010101011
00000000000000000000000000000000000000000000000000000000000000000000000000000000
00000110000000000000010011011000000110100011011000000000000000000000000000110110
00000000000000110101000110111010000110111011010001001000000000000000001000000000
00000100000110000110111111101100010011100001100000100111000000000000100101010010
00000000000000000001111011100000011011000000000000011011000000001111000000000100
00000010000000010000000000011010000011010000000000001000000010000000001000010011
00000000000000000110110000000000110110000000000000000000000000000000000000000000
00011110010100010000000100000000011011000000011011011000000000000001001000000000
00001101000001000110110000010010000011011110000101101011001101100110110000000000
00011011010100110000110111110010010010000000000000001001000000000000010000100110
10100010000000110000010010111100011011000101000010100010101000100101000000011100
00000000000000000000000000000010000000010000000000000000000000000010010000000010
00000000000000000000110100000000000001100000000010100010101000100000000001001000
01111001001010000101000100000000011011010111010101010000111100100000001000000000
01010001101011100111010101001000001110100110101000001100010100000111101011101010
01110000000000000111000000000000111010100000000000011100000000101101100001101100
00000000000001000000000000110110001001100000100000011000000000000000000000111010
00000000000000000110110000000000000000000000000000000000000000000000000100000000
01011101000000110110110101101100000010010101000111110000111100100000000000000000
00111010010100011101100000100101010101000010011100000000111100101001111100011011
01111001000000000111101000001000101101000000101100001010001111100000010001010000
00101000011110000000000001010011111100100000000011101010101101000000100001101100
00000000000000000000000000000000000000100000000000000010000000000001101100000001
01101100000000000010010000000000000000000000000000110110110110000000000000000000
00001100000000000000000001010010010110100110110111101010000110101010001001010101
01101100010111010001101000000000000011000101010100001011101000100111011111101101
01111001000000000000000100000000000000100101000110101011000000000100101110101010
00000000000000000000000000100100111100100000000000011010000000000000000000100111
00000000000000000000000000000000000000000000000000000000000000000000100100000000
00000011101010000000000000000110000000000111100011110000010011100000000001011010
00001001001000111110101000100111000011000111011001010001000000000100111001101111
00100100010101010000001010111101000001100110111000011011101000100000110101010000
00001001110110000000110101010001000000100101010010100010001101100001101000000000
00001000000000000000000100000100000110100000000000000000000000000000000000000100
00000000101000100000000010100010000000000000000000000000000000000001101100000000
00000000001111101101100000000011000010000111010101001000000000001010001001110110
00000000011011001111001001011101000000000000000100000000000000000110111011011001
00001100000000000010010000000000000101000111100100000000001101101110110100011010
01001000110110100000110100011011000000100000000000000000010110010000100001101100
00000000000000000000000000000000000000100000000000000000000000010101000100000000
00000000001101100000000001100011000000000000000000000000011101011010001000011011
00000000000000001101111001101101000101000000010000111100000010011010101000001100
00000000010101000010111100000000101101000010010010100101000011010000111011110010
11011000111100000000101000000010000000000000000100011110000000011111001000011011
00000110010010100000000000000000000000000000000000000001001001000000000000000000
00000000000000000000000000000000000000000000000000000000000000000000000000000000
00000000000000101010001001010011001111110101000110100010000011011110101000001100
00000000000010100000100000100111111100000000000000011010011110000101000111011011
00000000101010110000000000000001000000100000000100100011000000111110101100001000
11011000000000000000000000001001000000000011011000000001000000000001001000011011
00000010000001100000000000000000000000000000000000001000000001000000000000000000
10100010001101100000000011011000000000000000000000011011011011001010001000000000
00000110001001001111001000011011110110011010001011011000000000111010101001110101
00000000000000010000011000001100000000000000000000011010000011000010010001001110
00000000000001100000000000001101000000110000000000000001000000110000100000000000
00011000101000100001100000000001000000000000011011011001011101010000000000000011
00000000000000000000000000000000000000000000000000000000000000000101001000000000
01001000000001101110101000000110000110110011011000001100010101000100100000011011
00111100000011001111001001111000000000011011011000110110000011010000001000011100
11011110000000001101100001011110000000001010001001010001010100100000000000010010
11011000000000001110101000000011000000001110000000011011001001000000000000000000
00000000000100100000001000000000000000000000000000010010000011010000100100000000
00000000101000100000000000000000000000000000000001010001000000000000000000000000
10110100000000001011110001011001000111001111000000001100000011010000000000011110
10111100000000000000011001110110000000000101000000010010000001000000000000001100
00111000000000001111001000011100000000000000000000001001010100010010011100000000
00000110000000000001101000010010000010010001001000000000010100100000000000000000
00000000000000100000000000000000000000000000000000000000000000000000100100000000
00000000000110001101100011011000000000001010001000000000000110110000000000000000
00000000000000010001101001101100010110110000001010100010000110110001111001101101
00011010101000100011011000101000000000010000011000000110000000000000100000000001
01010000000000001111001000000011010100010000000000000000000010100000001100001000
00000000000100100000001000000000000000010000000001001110000001000001101100000000
00000000000000000000000000000000000000000000000000000000000000000000000100000000
01001000000000000000000000010010000100100011011000000000011101010101110101010011
00000000000000001011101000011011010100010011111000000000000000011110101001010001
10100010000000011101100000000011010100010000000000000000000000000110110010100010
00000010000000000101000000000000000000000000000100000001001010000000000000010010
00000000000000000000000000000000000000000000000000000010000000000101010000000000
00000000101000100000000000000000000000000000000001010001000000000101000111011000
00111000000000100000000010110100000000100000000000000100000000000000000101101100
00000000000011000000000000000010000000110000000000000000000000000000000000101000
00000000000110111110101000000000000000010101010000000000000000000000001111101010
00000000000000000000100000000000000000000000000100111110000000110000000000000000
00000000000000000000000000000000000000000000000000000000000000000001101100000000
00000000010011100010010000000000001101100000000001101100111100000000000000000000
00000000011011000000000011011000001001000000000000100101000000100001001001010011
00000110001001110000000000011010000011000000000000000100000000000101000000000000
00100100000000000001001000000000000000000000000000111100000000000000000001001110
00000000000000000000000000000000000000000000000000000000000000000101000100000000
00000000000000000000000000000000000000000000000000000000000000000000000000000000
01101100111011000110110000000000000000000000000001101100111100100000000011011000
01101101000100100101111000000000000000000100100000101000010100001010010011110010
01110101000000000000000000000000000000000101000000000000111100000000000000011010
00000100000100100000000000000000000000000000000000000000000101000001101100000000
00000000000000000000000000000000000000000000000000000000000000000101000100000000
00000000000000000000000000000000000000000000000000000000000000000001101100000000
01110101001101100000100100000000000000000000000000000000110110000000000000000000
01111001111100000111100000000000000000000001001000000000000000000000000000000000
00000100000000000000001100000000000101000000000000000000000000000000000000000000
00000000000000000000000000000000000000000000000000000000000000000000001100000000
00000000000000000000000000000000000000000000000000000000000000000101101000000000
00000000000000000000000000000000000000000000000000000000000000000000000000000000
00000000000000000000000000000000000000000000000000000000000000000101000100000000
00000000000000000000000000000000000000000000000000000000000000000000000000000000
00000000000000000000000000000000000000000000000000000000000000000000000000000000
00000000000000000000000000000000000000000000000000000000000000000001101100000000
