00000000000000000000000000000000000000000001110000000000000000000000000000000000
00000000000000000000000000000000000000000000000000000000000000000101010000000000
00000000000000000000000000000000000000000000000000000000000000000000100100000000
00000000000000000000000000000000000000000000000000000000000000000000100100000000
00000000000000000000000000000000000000000000001100000000000000000001101100000000
00000000000000000000000000000000000000000000000000000000000000000000001100000000
00000000000000000000000000000000000000000000000000000000000000000000000100000000
00000000000000000000000000000000000000000000000000000000000000000110110000000000
00000000000000000000000000000000000000000000000000000000000000000000000100000000
00000000000000000000000000000000000000000000000000000000000000000000000000000000
00000000000000000000000000000000000000000000000000000000000000000110110000000000
00000000000000000000000000000000000000000000000000000000000000000001111000000000
00000000000000000000000001101100000000000000000000000000000000000010100000000000
00000000101000100000000001111000000000000000000000000000000000000101000100000000
00000000000000000000000001110000000000000000000000000000000000000010100000000000
00000000000000000000000000001101000000000000000000000000000000000000000000000000
00000000000000000000000000000000000000000000001100000000000000000000000000000000
00000000000000000000000000000000000000000000000000000000000000000000100100000000
00000000000000000000000001011010000000000000000000000000010100010000000000000000
00000000101000100000000001011011111011001111000000011011000011010000000000000000
00000000000000000000000000011011000000100000000000000000000000000000000010100010
00000000000000000000000000001100000000000000000000000110000001100000000000000000
00000000000000000000000000000000000000000000000000000000000000000101000100000000
00000000000000000000000000000000001101100000000000000000000000000000000000000000
00000000000000001010001000000000000010001110101001111001000011000000000000000000
11110000000000111011110000010010000000100100111000100101000000110000000000000000
00000000000000000000000001010001000000010111010111011001111010100000000000010010
00000000000000100000000000000001000000000000000100000010000010000000000000000000
00000000000000000000000000000000000000000000000000000000000000000000100100000000
00000000000000000000000000000000000010000000000100001001000110111101100000000000
00000000000010011101111001001110000000000000000000000001000110110001101000000000
00000110000011001110110001101110001001000101000100000000000000000000000000100111
00000000000000000000001000000000001001010111010111101010110110000000110000000010
00000000000000000000000000000000000000000000100100000000000000000000000000000000
00000000101000100000000000000000101101000010010001010001000000000000000000000000
00000110000000000001111100110110000000001010001000011011000000010100111000010010
01011101000110110000000010101000000000001111001001010001010100011010100000001100
00000100000010010000000000011010000010010000000000000000000000000000001001010001
00000010000000000000000000000000000010100000010000011000000110000101000100010011
00000000000000000000000000000000101000100000000000000000000000000000000100000000
01001110000000000010010010100010010110010000001100000011010110101010001010100010
01101100000000000101010011011000000000000100111000011011000000001011011001010001
00101000000001010110110000000000000001101011110000000100001101101011101000011011
00000000010110100000000000111110010100010101011110100010101000100000000000011011
00000000000000000000000000000000000001000000000100000010000000100000000000000110
10100010000000000010010000000000111010100000000001101100000000000000000100000000
00000110000111100010100000001000000010010000000000000011010100011111000000000000
01101100000000000101010111011010000000001110101000000000000000000000001000000000
00001010000000000000100111110010000000001010101000000000000100100000000001011011
00000000001001010000000001001110011101010000000001001000111010100001101010101011
00000000000000000000000000000000000000000000000000000000000000000010010000000000
00000110000000000000010000110110000110100000000000000011000010010000000000000000
01010001000001000101000110111010001001000001001011011000000010010000100000001001
00000000000100100111100011101100010010000001101001011010000000000010011100000001
00000000000000110000000110111100011011000000000000100111000000001101111000000100
00000010000000010000000000001000000011010000000000001000000110100001110100010011
00000000000000000111010100000000101000100000000000000000000000000000001100000000
00000011010101000000000100000000010110100000011010100010000000000000011000000000
00001100000000010110110000000000001010001110000101101011001101100110110000000000
00000010000010000101010110111100111010100000000000011110000000000011101000100110
00000000000000000000010010111010011011000100100010100011110110000001101000100100
00000000000000000000000000000010000000010000000000000000000000000000100100000010
00000000010100010000110100000000000001100000000010100010101000100000000000110110
01111000001010000001101100000000011011110010010000011010111100100000100000010010
01010001000011000111010101001011001110010110101000001001010100000111100011101010
01101101000000000001111100000110111010100011011100000100000000101101100000000000
00000000000000110000000000111001001001100000011000011000000001100000000000000011
00000000000000000110110000000000000000000000000000000000000000000000001100000000
01011101000000000110110100011011011101010110110011110000111100100000000000000000
00110110010100011110101000011011001001110010011100000000111100100110100100000000
01101111000000010111011100001000010010000000101100000001111000000000010001010000
00100100011110010000000001101110111100000000000011101010101000100000001001101100
00000000000000010000000000000001000000100101000100000000000000000000000000000001
01101100000000000010011100000000000000000000000000110110110110000000100100000000
00000000000000000001001000000001000000000101101100000010000110101010001001010010
00011011010111010101000000000011000011010101010100100111101010110111011111101101
01101101000000000000000000000000000000100101101010100010000001100100101110100100
00000000000000000000000000100111010100000000000000011010000000000000000000100111
00000000000000000000000000000000000000000000000000000000000000000101000100000000
00000011101000100000000100011011000000000111100011101010010011100000000001010001
00001001001000111101100000011111000010010111100000110110000000000100100001010100
00001100000000010000100000011011110110000111011100100101101000110000110101010000
00000001101000100000110101010001000001100000010010100010001101100001101000000000
00001000000000000000000100000001000110100000000000000110000010010000000000000100
00000000000000000000000010100010000000000000000100000000000000000000100100000000
00000000001111101101111000011110000000100101000100110110000000001010001000100101
00000000010100011011101000001100000000010000001100000000000111100110111011011001
00001001000000000010010000000000000000100000110100000000000000001110111000001000
00110110101101100000110100011110000100100000000000000000011001010000001000011011
00000000000000000000000000000000000000100000000000000000000000010000000000000000
00000000000100100000000001100011101000100000000000000000011011000000001100011011
00011110010100011101100001111001000101000000001100000110000010010000100000000011
00000110000001000001010000001001101101000010010010100101000011000000110011110010
10100011111100000000101000000000000000000000001100000011010100100101000000011011
00000110010010100000000000000000000000000000000000000001001001000000000000000000
00000000000000000000000000000000000000000000000000000000000000000000100100000000
00010010000010001101100001010011110110000101000110100010000011011110101000011110
00000000000010100001101000101000110111100101000101010000000000010110001110100110
00000011101000100000000000000000010100110010100000011101000000001110101100001000
11011000000000000000000000000000000000000011011000011100000110110000100000000000
00000000000001100000000000000000000000000000000000000110000001000000000000000000
10100010001101100000000011011000000000000000000001101100011011000000000100000000
00000110000110111110000000100100101000111010001011011000000000110001101001110101
00000000000000010000011000001100000000000111010100011010000011000001101101001110
00010010000000000000000000001010000000000001001100100101000111000000100000000000
00011000101000100000100000000000000000000000011000111010011101010000000000000011
00000000000000000000000000000000000000000000001100000000000000000000110000000000
00010010000000101101100000011000001001000000000000001010010100010100100000011011
00000110000010010100101001110101000000011111000011011000000010010000000000001010
00000110000000000001001000011110000000000000000001101100010100100001110000011000
00110110000000001110110000000011000010011101101000000001000000010000000000000110
00000000000000000000000000000000000000010000000000000110000000110000000000000000
00000000101000100000000000000000000000000000000001010001000000000000000100000000
11101010000000000101000000000000000111001111000000011110001010000000000001010010
11110010000001100000011001011101000000110101000000010010000000110000000000001100
00000110000001101111001000000001000000001010001000011011010100010001101100000110
00000110000011000001101000010010000010010000000010100011010101000000000000000000
00000000000000100000000000000000000000000000000000000000000000000001101100000000
00000000011000111010001011011000000000001010001000000000010100010001101100000000
11011000000000000001010001101100011011000011100000000000010110100001101101101100
00000110000000100011011001011110000000000000000001010001000000000000100000000001
01010000000000001110110000000100010100010000000000000011000010010000001100010100
00000000000000000000001000000000000000010101000100011000000001000001101100000000
00000000000000000000000000000000000000000000000000000000000000000000000000000000
01001000000000000000000001001000000100101101100000000011011101010000110000001011
00000000000010011011011001101111010100010011100000000000000011011110101001010100
10100010000000011101100000000011000000000000000000000000010100010110110000000000
00000010000000000101000000000000000000000000000110100011001001000000000000000000
00000000000000000000000000000000000000000000000000000000000000000000000000000000
00000000101000100000000000000000000000000000000001010001000000000101010000000000
00111000000000000000000010110100010100010000000000000100000000000000000101010001
10101010011101010000011000000010000000000000000000000000000000000000000000100101
00000000010100101110101000000000000100110101010100001001011011000000010011011000
00000011000000000000100000000000000000000000000100011010000000010000000000000000
00000000000000000000000000000000000000000101000100000000000000000000001100000000
00000000111100000111010100000000001101100000000001101100111010100000000000000000
00000000000000000000100111110000011011110000000001110110000100100011011001010011
00000110000111100000000000011010000001000000000000000000000000000011110000000100
01110101000001000000000000000000000000000000000000000000000000000000000000011000
00000000000000000000000000000000000000000000000000000000000000000000000000000000
00000000000000000000000000000000000000000000100100000000000000000000001100000000
00100100111000000110110000000000000000000000000001101100111100000000000010100010
01101101000000000000110100000000000111101111000000101000111100101010101011110010
01101100000000000001101100000000000000001011101000000000111010100000000000011010
00000100000000000000000000000000000000000000000000000000000000000000100100000000
00000000000000000000000000000000000000000001111000000000000000000000000100000000
00000000000000000000000000000000000000000000100100000000000000000000000000000000
01111000001101100010010000000000000001100000000000000000000000000000000000000000
01111001110110000111100000000000000000000100100000000000000000000000000000000000
00000100000000000000110100000000000001100000000000000000000000000000000000000000
00000000000000000000000000000000000000000000000000000000000000000000000000000000
00000000000000000000000000000000000000000000000000000000000000000000001100000000
00000000000000000000000000000000000000000000000000000000000000000000100100000000
00000000000000000000000000000000000000000000000000000000000000000101000100000000
00000000000000000000000000000000000000000000000000000000000000000000000000000000
00000000000000000000000000000000000000000000000000000000000000000000000000000000
00000000000000000000000000000000000000000000000000000000000000000001110000000000
