00000000000000000000000000000000000000000000000000000000000000000000001100000000
00000000000000000000000000000000000000000000101000000000000000000000000000000000
00000000000000000000000000000000000000000000001100000000000000000101101000000000
00000000000000000000000000000000000000000000000000000000000000000101000100000000
00000000000000000000000000000000000000000000000000000000000000000101010000000000
00000000000000000000000000000000000000000000000000000000000000000000000100000000
00000000000000000000000000000000000000000000001100000000000000000101000100000000
00000000000000000000000000000000000000000000000000000000000000000000001100000000
00000000000000000000000000000001000000000000000000000000000000000101000100000000
00000000000000000000000000000000000000000000000000000000000000000110110000000000
00000000000000000000000000000000000000000000000000000000000000000000110000000000
00000000000000000000000000000000000000000000000000000000000000000000000000000000
00000000000000000000000001010001000000000000001100000000000000000000000100000000
00000000000000000000000001111001000000000000000000000000000000000101000100000000
00000000000100100000000001110110000000100000000000000110000000000000110100000000
00000000000000000000000000000100000000000000000000000000000000000000000000000000
00000000000000000000000000000000000000000000000000000000000000000001111000000000
00000000000000000000000000000000000000000000000000000000000000000101001000000000
00000000000000000000000001011010000000000000000000000000010100010000000000000000
00000000110110000000000001011011010010101111000000011011000011010000000000000000
00000000000000000000000000011011000000100000001000000000110110000000000000000000
00000000000000000000000000000100000000000101000100000000000101000000000000000000
00000000000000000000000000000000000000000000000000000000000000000000000000000000
00000000000000000000000000000000101101000000000100000000000000000000000000000000
00000000000000000000000000000000000010001110101001110101010101000000000000000000
11110010000000111111001000000010000000000100111000100101000000000000001100000000
00000000000000000000000001011010000000000111010111011000110111100000000000000000
00000000000000000000000000000001000000000000010000000010000000100101000100000000
00000000000000000000000000000000000000000000000000000000000000000000000000000000
00000000000001100000000000000000000110100000000000100111000110111010001100000000
00000000000010011011101001001110000000000100100000000000000000000000011001010001
00000110000010011111001001010011000110110000000000000000000011000000000000100100
00000110000000010000001000000000001001000010010001001000111010100000110100000000
00000000000000000000000000000000000000000000000000000000000000000101000100000000
00000000101000100000000010100010010011100000100101010001000000000000001100000000
00000010000000000111000011011000000000001010001000100100000010010001100000000000
01011010000111100000000010111010110110001111000000011011000000001011110000000000
00000001000000000000000000001000000000000000100000000000001101100000001001010100
00000010000000000000000000000000000011010000001100011000000110100000000000010011
00000000000000000000000000000000000000000000100100000000000000000000001100000000
01001110010101110010010010110100000010000000000000000011000010011010001010100010
01101100000000000001111010101010000000000011110000011110000000001010010000000000
00101000001110010110110010110100000001100001100000000001001101101110000001101100
10100010010100010000001100111110011011000101100110100011101010000000000000000001
00000000000000000000000000000000000001000000000100000010000000100000000000000110
11011000000000000010010000000000110110000000000000000000000000000000000000000000
00000000010100010001111000001000000000001011010000000100000000001111000000000000
00011011010000100111000011011000000000001110101000000000000000010000001001010001
00001001000000000101101111110010010100011010101000001010000000000011100000000001
00000000000110110000000000011010011101010000000001001000110110000001100010101011
00000000000000000000000000000000000000000000000000000000000000000001111000000000
00000000000000000000010000110110000110100011011000000000000010011010001000110110
00000000000000110101000100010010000110111011010010100010000010010000100000000000
00001001000100100111100011101100010010000001100000011110000000010000110001100100
00110110000000000101010110111100010100010000000001010001000000001111001000000100
00000010000000000000000000001000000011010000000000011010000110000000001000010011
00000000000000000111010100000000110110000000000000000000000000000000000000000000
00000000000110110000000100000000011011000000011010100010101000100100111000000000
00001100000010100101000110110100000010101110000100011010001101100101000100000000
00000000000000100111100111110010111010100000001000100111000000100011101000001001
00000000000000000000110000011000011011000011110010100010101000100001101000100100
00000000000000000000000000000010000000010000000000000000000000000001101100000010
00000000010100010010100000000000000000000000000010100010101000100000000000000000
01111000011110010001101100000000000011010010010011110010111100100001010000000000
01010001000011000110110011101010001110010110101000001100010100000111101011101010
01111001000000000111000000001000111010100011011100000100000000001101100001101100
00000000000001000000000000110110001001100000011000011000000000000000000000001010
00000000000000000110110000000000000000000000001100000000000000000000000000000000
01011101000000000110110101101100000000000110110011110000111100100000000000000000
00000011010100011101100001110110011011110010100000011011111100100110100100000000
01110110000000010111101000000110000101000000111000000100111100100000010000011010
00101000011110000000000001101110111100100000000011101010110110000000001001101100
00000000000000000000000000000001000000100000000000000010000000000000000000000001
01101100000000000010011100000000000000000000000010100010110110000000000000000000
01011101000000000011011000000001000000000111100100000010010100001010001001010101
00011011010111010101000001010001000011010101010100001001101000100111011111101010
01110110000000000000000100000000000000100111011011100001000100100011100100001000
00000001000000000000000000100111010100000000000100011010000000000000000000100100
00000000000000000000000000000000000000000000000000000000000000000000000000000000
00011110101000100000000000011011000000000101110111101010111100000000000001011010
00000000011011001101111000101000011110010111100001010001000000000100111001010100
00100101000011010000100010111101110110000110111000001100000000010000110101010000
00000100110110000101111001010001000010000000110100000000001101100001101000000000
00000010000000000000000100000100000101000000000000000110000010010000000000000100
00000000000000000000000000000000000000000000000000000000000000000000100100000000
00000000000110101101100000000011000000100101110110100010000000001010001000100101
00000000011011001011101001011110101001100000001100011101000000000110111011011001
00100111000000000111010100000000000010000101110100000000001101101110111000011010
00110110111000000000110100000000000100100000000000000100011001010000100001101101
00000000000000000000000000000000000000100001101100000000000000010101101000000000
00000000001101100011011001100011000100100000000000000000010100010000000000011011
00000000010100011101100001110110101101100000010000111110000000000000100000001100
00011000000001000010111100001001101101000001101110100010010100100000110011110010
10100011111100000000000100000000000000000000001100001100000000011111001000011011
00000110001110000000000000000000001101100000000000000001001001000000000000000000
00000000000000000000000000000000000000000000100100000000000000000000000000000000
00010010000000100011011001010011101000100101000110100010000001001110101000001100
00000000000000010000100000001101111100100101000101010000010111100110001110100110
00000011101000100000000100000000000010000111100100100011000000001101100100000010
10100010000000000000000000000000000000000011011000000001000000000000100000000000
00000000000001100000000000000000000000000000000000000110000001000101000100000000
10100010000100100000000011011000010100010000000000011011011011000000000000000000
00010010010100011111001000011110110110011010001011011110010101010001101001110101
00011000000001000000000000001101000001100110110001010000000111101010001001001110
00000000000000000000001000000100000000110000000100000001000010100000100000000000
00011010000000100000011000000001000000000000011000111001011101010000000000000011
00000000000000000000000000000000000000000000001100000000000000000101010100000000
00000000000001101101100000000000000110110000000000001101010101000100100000000000
10101000000011000101000001110101000000011011011011011000001010000000000000000000
00000000000000001101100001110000001101100000000001010001010100100000000000010010
11011010000000001101101000000000000000001010001000011011011011000000000000000110
00000000000100100000000000000000000000000000000000000000000001000000000000000000
00000000110110000000000000000000000000000000000000000000000000000000000000000000
11110000000010011111001001010011000000011111001000001100010111100000001000000001
10111100000000000000000001111001000000000100101000010010000000110000001100001101
00011010000001100100111000011100000010011010001000011011010100100111100000000000
00000110000000110001101000010010000010010001001010100011010100010000000000000000
00000000000000100000000000000000000000000000000000000000000000000000000000000000
00000000010101111010001011011000000000001010001001011010010100010000000000000000
10101000000000000101000001010001010110110011100000000011000010010001101101010001
00111110101000100011011000001101000000010000000000000110000000000010000100000001
01010000000000001111001000000100010100010000000000001100000011000000110000010010
00000000000100100000001000000000000000010000000000011000000001000000000000000000
00000000000000000000000000000000000000000001111000000000000000000000100100000000
01001000000000100000000001001000000000001101100000000000011101010010011100011101
00000000000000001011011001101100011011000000100000000000000000001110101001010001
10101000000000000011011000000011000000000000100000001001011010010101000100000001
00000010000000000100111000000000000000010000000010100010001001010000000000000000
00000000000000000000000000000000000000000000000000000010000000000000000000000000
00000000101000100000000000000000000000000000000001010001000000000101000100000000
00000110000000100000010010110100010100010000000001010010000000000000010001011010
10100100011110000000100000000010000000010000000000000000000000000000000000001101
00000000000000011110101000000000000000000101001000000000011011000000001111101010
00001100000000000000001000000000000000000000000100001000000000010000000000000010
00000000000000000000000000000000000000000000000000000000000000000000100100000000
00000000010011100010010000000000001101100000000001101100111011000000000010100010
00000000011011000000000011101010000000110000000000100100000100100100100000000000
00001000001001000000000000001000000000010000000000000001000000000011111000000001
01110101000001000000000000000000000000000000000000000110000000000000000001001000
00000000000000000000000000000000000000000000000000000000000000000001101100000000
00000000101000100000000000000000000000000000001100000000000000000000100100000000
01111000110110100110110000000000000000000000000001101100111100000000000010100010
01010010000000000101111000000000000000000100111000101000010100000000100011110010
01110101000000000000000000000000000000000001101000000000110110000000000000011010
00000100000000000000000000000000000000000000000000000000000000000000000000000000
00000000000000000000000000000000000000000101000100000000000000000000000000000000
00000000000000000000000000000000000000000000000000000000000000000001101100000000
01111000000000000001101100000000000000000000000000000000000000000000000000000000
01111001000000000111100000000000000000000001001000000000000000000000000000000000
00001101000000000000110100000000000110000000000000000000000000000000000000000000
00000000000000000000000000000000000000000000100100000000000000000101000100000000
00000000000000000000000000000000000000000000000000000000000000000001101100000000
00000000000000000000000000000000000000000000000000000000000000000000000100000000
00000000000000000000000000000000000000000000000000000000000000000101000100000000
00000000000000000000000000000000000000000000000000000000000000000101111000000000
00000000000000000000000000000000000000000000000000000000000000000000000000000000
00000000000000000000000000000000000000000000000000000000000000000001111000000000
