memory_initialization_radix=16;
memory_initialization_vector=
00000000000000005100,
00000000000000000900,
00000000000000000000,
00000000000000005100,
00000000000000005100,
00000000000000000000,
00000000000000001B00,
00000000000000000000,
00000000000000001C00,
00000000000000000000,
00000000000000000100,
00000000000000000100,
00000000000000000000,
00000078000000006C00,
00480076060000000D00,
00000001000000001B00,
00000000000000000A00,
00000000000000000000,
00000000000000510000,
000600094AEA1B0A0000,
003800750202003601A2,
00000003000006180000,
00000000000000000300,
00360000D80000000900,
A251000008B4780C0000,
F203501402181E030000,
000000510175D8F00000,
00000001000402080000,
00000000A25100000100,
000600001A012400A200,
00003C3C120000001851,
4E0AF06E000000000024,
08360200096CECD80DD8,
00000000000000001B00,
A2D851A2481B51000000,
0600513600A224094E00,
750000A8A2E05100EC0E,
040F0018090600000254,
080000000A544E1A0049,
00000000000000000000,
4E0009B408030C09D800,
75001BAA033C0000B600,
280575B400BC0136B41B,
A251003E5157A2A20000,
00000000040308020006,
A2005A00EA00510000A2,
000303AA00120351F000,
6C4255DEA2F01B000200,
0A0009F251E00900000D,
0009004E750048D81AAB,
00000000000000000000,
060004D81A3600000036,
000351BA1BB448000200,
04186FEC4E1827000952,
00001EE06C001B00F004,
0201001A0D0008080213,
00006C00D80000000000,
1E5101006C06D8001200,
0D046C120DE16B366C00,
1B530DF2480009000426,
A20304BC6C50A2A2501C,
00000002010000002402,
00000D000600A2A20048,
792851006D7550F20200,
51AE75483A6A0C507AEA,
70007000EA001C02D86C,
0004003626081800003A,
00006C00000000000100,
5D036D6C0951F0F20000,
3A51D825542700F29F1B,
79007A08B40B0A3E0450,
28780053F200EAB4086C,
00000000020002001B01,
6C002400000036D80000,
0C0000525A6DEA1AA255,
6C5D1A000C550BA277ED,
790001000251AB004BAA,
00000024F2001A000027,
00000000000000000900,
03A800060078F04E005A,
0923EA270C7651004E6F,
245502BD066E1BA20D50,
09D80D510254A2361A00,
080001041A0000000004,
00A200A2000000001B00,
003ED80308754800A276,
006CF25D000100006ED9,
0C00240014790036ED1A,
48DA0D1B02000059086C,
00000000020000015100,
0036006300000075A21B,
0000DE6D14043C09AA0C,
00542F00B424A50D0EF2,
D8F00A0200011E01F21B,
064A0000000001240000,
00000000000000000000,
0002A2533F51A20DEA0C,
000A0827F0001A7851DB,
00AB000102012303EB08,
D800000900360100121B,
02060000000008040000,
A23600D800001B6CA200,
0624F21BD9A2D803AA75,
0001060C00001A0C244E,
0006000D030001030800,
18A218010006D9750003,
00000000000000005200,
4806EA061B360C54481B,
3C0CF27801B6360D021C,
DE00D85E00A251520012,
D800EA0300E01B240000,
001202000000120D0900,
00A20000000051000000,
B400BC591CF00C0D001E,
BC00067600501204000C,
3800F21C000009512700,
06001A12091200520000,
00020000000000000900,
0018D8D800A2001B0000,
00011A6C5B02A21B1E6D,
1AA23628010606000801,
5000F2035100000A0308,
0012020001004E041B00,
00000000000000000100,
48000012123600755D53,
0000BA1B513E0001EA51,
A201D803510000006CA2,
02005000000101280012,
00000000000002005400,
00A200000000510051D8,
380200B402000400016C,
000C0002030000000028,
001BEA000154000003EA,
0000080000013E030000,
00000000000000001B00,
004E240036006CF00000,
006C00D8240025021253,
0627001A0C0004005000,
2400120000003C00004E,
00000000000000005100,
00000000000000000000,
6CEC6C0000006CF200D8,
6D125E0000482850A4F2,
75000000005000F0001A,
04120000000000141B00,
00000000000000005100,
00000000000000001B00,
75360900000000D80000,
79F07800001200000000,
04000300140000000000,
00000000000000000300,
00000000000000005A00,
00000000000000000000,
00000000000000005100,
00000000000000000000,
00000000000000000000,
00000000000000001B00;