memory_initialization_radix=16;
memory_initialization_vector=
90,
21,
06,
B4,
09,
1C,
06,
3F,
A2,
1C,
67,
00,
25,
02,
03,
00,
1B,
06,
13,
00,
6C,
52,
37,
09,
39,
38,
6C,
7C,
B6,
51,
60,
01,
20,
6D,
53,
01,
C6,
21,
0C,
13,
51,
51,
1E,
6A,
0F,
00,
01,
04,
51,
A6,
5A,
12,
A9,
10,
1A,
54,
03,
55,
08,
02,
00,
51,
53,
A8,
01,
52,
A2,
19,
BD,
00,
0C,
AA,
23,
63,
17,
1E,
51,
03,
28,
02,
00,
1B,
87,
02,
0C,
39,
22,
57,
1E,
40,
DB,
1B,
A5,
00,
82,
09,
00,
12,
03,
60,
87,
24,
A4,
1E,
09,
58,
03,
1B,
18,
3F,
01,
48,
04,
5A,
88,
04,
43,
00,
0A,
A5,
09,
53,
01,
3C,
93,
0A,
1D,
03,
57,
23,
55,
33,
04,
21,
52,
21,
4C,
1B,
07,
04,
51,
1C,
0A,
63,
AB,
09,
09,
00,
D8,
48,
36,
A6,
00,
0B,
56,
0A,
9C,
03,
04,
88,
B4,
09,
01,
1B,
6D,
C1,
09,
70,
4D,
1B,
01,
24,
12,
1B,
51,
00,
00,
01,
58,
2F,
00,
51,
00,
72,
00,
06,
81,
0A,
1D,
39,
01,
0A,
00,
A2,
12,
1B,
D8,
52,
02,
05,
1D,
A5,
51,
06,
12,
89,
C7,
06,
8D,
A2,
A2,
B6,
5A,
AF,
1B,
E8,
03,
02,
5A,
0F,
0A,
B9,
DE,
1E,
0A,
1E,
03,
3F,
00,
00,
36,
AC,
00,
1B,
09,
D1,
5A,
87,
03,
1B,
00,
04,
00,
00,
03,
51,
00,
57,
01,
00,
3F,
2D,
89,
03,
00,
01,
1E,
02,
06,
75,
6C,
7E,
D5,
5A,
37,
60,
A2,
27,
03,
2B,
00,
6C,
1B,
1C,
36,
06,
12,
02,
15,
D8,
01,
1B,
00,
55,
B4,
00,
1C,
00,
00,
01,
04,
6C,
36,
80,
02,
51,
22,
00,
87,
52,
37,
8A,
06,
03,
20,
6C,
00,
1B,
70,
00,
01,
3F,
08,
00,
BF,
00,
07,
A2,
03,
0D,
1B,
A2,
40,
6F,
23,
88,
01,
05,
2F,
09,
5A,
06,
24,
90,
A7,
1B,
02,
0A,
39,
AB,
BD,
54,
51,
00,
5A,
42,
57,
1E,
03,
06,
00,
A3,
00,
0C,
1C,
00,
48,
09,
1D,
57,
02,
F0,
96,
5D,
09,
75,
1B,
51,
1B,
51,
60,
3F,
AC,
14,
06,
52,
A3,
06,
B4,
75,
89,
05,
36,
56,
00,
02,
6C,
B4,
3E,
0C,
00,
99,
02,
C2,
03,
60,
02,
00,
00,
1B,
37,
00,
0C,
03,
12,
64,
02,
01,
13,
05,
00,
12,
09,
1B,
01,
54,
00,
14,
6C,
00,
36,
0A,
09,
56,
00,
5A,
4C,
87,
59,
09,
3F,
51,
6D,
2F,
76,
09,
53,
15,
A3,
06,
03,
40,
A2,
09,
00,
51,
21,
3F,
09,
06,
7E,
51,
01,
05,
A2,
27,
87,
A2,
06,
02,
01,
0B,
48,
01,
02,
00,
06,
3C,
0B,
0C,
5D,
C1,
0F,
00,
39,
A7,
36,
1B,
27,
07,
00,
51,
77,
00,
21,
A2,
37,
24,
2F,
B5,
09,
51,
0C,
04,
00,
79,
A3,
0C,
1B,
01,
01,
BD,
A2,
A2,
A5,
B9,
36,
1B,
6E,
63,
09,
02,
1A,
00,
03,
0E,
12,
12,
00,
02,
1E,
03,
09,
71,
6C,
51,
03,
C9,
00,
51,
36,
48,
2B,
78,
A6,
6C,
1B,
A2,
1B,
1B,
5D,
00,
52,
7E,
A3,
03,
00,
0D,
00,
C3,
B5,
EC,
A4,
06,
A5,
A2,
12,
01,
0D,
26,
03,
A2,
00,
6E,
0D,
12,
01,
02,
01,
A2,
02,
22,
51,
39,
77,
3D,
1C,
AE,
09,
A2,
37,
1B,
D8,
01,
14,
00,
06,
01,
00,
00,
DB,
4B,
6C,
09,
26,
01,
6E,
54,
36,
13,
00,
0B,
1B,
00,
BD,
6F,
00,
0C,
00,
01,
93,
00,
2F,
09,
6D,
07,
A5,
24,
52,
03,
A2,
B4,
5A,
06,
55,
0A,
16,
24,
1E,
52,
00,
5D,
5D,
01,
52,
75,
03,
09,
00,
52,
5A,
1B,
51,
01,
52,
76,
04,
51,
01,
55,
1B,
51,
12,
51,
01,
03,
1B,
54,
36,
7E,
6C,
1B,
52,
1F,
40,
57,
04,
5A,
24,
55,
51,
54,
1B,
0C,
24,
03,
09,
52,
52,
01,
03,
A2,
00,
1B,
00,
07,
06,
10,
00,
09,
04,
BA,
02,
76,
00,
00,
36,
3E,
5B,
6D,
03,
4B,
A2,
08,
20,
03,
51,
B4,
48,
02,
03,
03,
0A,
00,
0F,
00,
00,
00,
52,
01,
00,
51,
6F,
07,
D8,
09,
52,
24,
09,
12,
00,
09,
1C,
1B,
0A,
0F,
01,
5A,
01,
01,
63,
0C,
00,
5A,
00,
00,
1D,
36,
09,
1E,
1B,
01,
54,
48,
09,
6C,
5A,
54,
51,
2D,
54,
24,
27,
1E,
04,
5A,
0C,
1B,
00,
1E,
6D,
1C,
52,
09,
52,
70,
09,
00,
1E,
52,
0A,
6D,
00,
54,
C6,
09,
51,
C4,
09,
09,
00,
3C,
03,
24,
01,
1B,
09,
6D,
A6,
03,
1B,
03,
01,
00,
00,
1C,
00,
01,
6D,
03,
00,
00,
54,
03,
51,
21,
E1,
6C,
21,
1C,
1B,
00,
3F,
1B,
A5,
01,
14,
07,
03,
51,
00,
1D,
00,
12,
88,
54,
09,
6C,
03,
0C,
09,
1B,
1B,
72,
48,
55,
7F,
01,
12,
0F,
00,
6D,
0A,
4B,
87,
09,
00,
03,
5A,
3C,
5A,
04,
AB,
00,
39,
A8,
53,
1B,
38,
03,
B5,
48,
85,
01,
25,
78,
50,
56,
87,
59,
01,
AF,
83,
09,
00,
24,
6D,
6D,
09,
09,
6C,
1C,
00,
87,
A6,
51,
6C,
00,
A3,
3F,
00,
6C,
75,
A5,
15,
08,
00,
25,
02,
0C,
66,
DA,
55,
12,
6C,
0D,
BA,
03,
01,
00,
51,
A3,
1C,
1B,
04,
24,
24,
1B,
0A,
56,
1B,
13,
51,
01,
12,
03,
01,
1B,
1E,
00,
73,
49,
00,
1C,
01,
01,
54,
57,
AB,
54,
24,
70,
52,
2F,
51,
1F,
1B,
27,
15,
5A,
2A,
0A,
53,
01,
8B,
3C,
DE,
6C,
00,
0A,
01,
BC,
AE,
00,
AB,
51,
36,
50,
56,
5D,
01,
00,
EA,
00,
51,
5B,
1E,
00,
50,
02,
1C,
00,
01,
04,
74,
03,
00,
52,
6D,
24,
03,
36,
1C,
51,
28,
63,
1E,
1E,
09,
0C,
04,
1B,
01,
1D,
24,
0C,
1A,
C9,
54,
52,
51,
36,
23,
6D,
03,
87,
00,
50,
1B,
6D,
1B,
5C,
36,
12,
5A,
33,
68,
0A,
50,
1C,
06,
1F,
41,
00,
0B,
51,
6C,
01,
00,
3C,
00,
4A,
03,
39,
EA,
B6,
02,
12,
6C,
37,
02,
48,
99,
06,
AF,
4B,
51,
BD,
51,
09,
03,
A2,
09,
00,
0C,
00,
1F,
10,
1B,
24,
54,
0C,
24,
76,
1C,
1B,
01,
01,
00,
6D,
09,
09,
00,
51,
3C,
0D,
07,
01,
A3,
53,
39,
51,
55,
5B,
AB,
10,
01,
10,
A7,
4E,
6F,
54,
03,
6C,
01,
D8,
09,
00,
A5,
0F,
51,
02,
2D,
27,
AF,
12,
28,
41,
A5,
51,
04,
00,
5A,
8A,
57,
A4,
2D,
6C,
0F,
CF,
3D,
00,
02,
A5,
09,
12,
45,
0B,
3C,
A2,
00,
1F,
B4,
36,
ED,
C0,
00,
02,
01,
52,
12,
08,
06,
6D,
2D,
75,
36,
09,
08,
91,
A2,
1B,
06,
00,
01,
A9,
13,
00,
1A,
1B,
09,
02,
BE,
09,
4E,
51,
19,
01,
37,
3F,
51,
51,
01,
00,
4E,
03,
5C,
BE,
03,
00,
87,
15,
53,
51,
CF,
51,
12,
02,
12,
05,
36,
05,
06,
2E,
1B,
66,
48,
C3,
A5,
54,
79,
03,
09,
88,
38,
00,
AD,
5A,
18,
1B,
00,
37,
A2,
11,
3F,
27,
00,
02,
21,
1F,
04,
C7,
0A,
01,
00,
02,
00,
75,
A3,
09,
2F,
00,
12,
1B,
54,
1B,
C0,
CD,
C0,
1B,
BB,
03,
00,
6E,
5A,
1B,
D8,
21,
1B,
A2,
A2,
1B,
00,
0B,
D2,
04,
15,
37,
AB,
36,
00,
52,
06,
51,
00,
A2,
C0,
71,
51,
73,
38,
B7,
37,
A2,
24,
99,
A2,
03,
00,
03,
03,
05,
14,
52,
04,
53,
03,
3F,
1E,
1B,
06,
04,
02,
00,
0A,
BD,
51,
57,
06,
09,
03,
6F,
09,
12,
00,
D1,
0C,
04,
00,
87,
A2,
54,
90,
00,
5B,
DB,
09,
4A,
09,
52,
33,
13,
12,
0A,
03,
15,
54,
CC,
87,
0A,
36,
A5,
03,
14,
B0,
41,
58,
2E,
A2,
18,
36,
02,
56,
00,
5B,
00,
03,
33,
24,
2E,
3A,
6C,
1B,
72,
1A,
00,
04,
76,
00,
BD,
01,
06,
03,
02,
52,
24,
54,
8D,
00,
36,
19,
02,
09,
51,
36,
1B,
BD,
06,
03,
12,
3F,
B4,
72,
A2,
36,
53,
03,
00,
18,
70,
24,
5B,
09,
A2,
02,
AB,
99,
03,
00,
00,
1D,
03,
1B,
A3,
40,
1B,
02,
09,
08,
AE,
64,
51,
00,
00,
41,
A2,
30,
04,
61,
64,
54,
00,
01,
11,
1C,
1C,
00,
5D,
3F,
1E,
65,
1E,
01,
18,
54,
02,
14,
00,
24,
2D,
33,
0A,
52,
30,
00,
3F,
02,
57,
AB,
1A,
3C,
02,
18,
42,
51,
A2,
03,
09,
5A,
51,
18,
15,
01,
01,
02,
42,
08,
04,
01,
03,
6D,
1E,
B4,
CF,
A2,
01,
6F,
A2,
00,
49,
0B,
5A,
20,
06,
01,
0F,
34,
51,
56,
5A,
03,
01,
87,
1B,
00,
D2,
02,
00,
00,
3A,
A2,
8D,
57,
BF,
A2,
12,
6C,
05,
53,
5E,
00,
02,
2F,
09,
04,
04,
07,
06,
60,
09,
64,
00,
33,
EA,
6F,
1B,
57,
05,
09,
02,
42,
00,
01,
87,
14,
1B,
BF,
03,
01,
A3,
1C,
1F,
01,
01,
1B,
29,
25,
69,
0E,
52,
00,
1B,
0C,
09,
03,
01,
03,
5B,
90,
D4,
1B,
6D,
70,
51,
02,
6F,
6D,
6F,
1C,
00,
1B,
51,
06,
0A,
2D,
06,
00,
54,
1B,
57,
00,
01,
C3,
1C,
36,
00,
5C,
54,
A2,
90,
00,
00,
55,
00,
A2,
39,
38,
20,
21,
25,
26,
50,
02,
51,
01,
12,
00,
D8,
1D,
5A,
63,
57,
03,
13,
09,
51,
4A,
12,
00,
0F,
01,
05,
00,
4B,
86,
1B,
A5,
00,
5B,
12,
02,
03,
0A,
09,
13,
97,
12,
5A,
A3,
04,
C1,
06,
04,
37,
03,
A4,
39,
0C,
56,
BE,
21,
09,
1B,
7E,
A5,
00,
1B,
54,
A6,
00,
36,
59,
1E,
1F,
00,
90,
20,
14,
51,
18,
09,
1E,
39,
A4,
00,
00,
97,
0A,
01,
12,
99,
25,
01,
15,
A4,
01,
26,
A6,
03,
24,
00,
09,
09,
00,
00,
1E,
36,
00,
07,
28,
09,
75,
0C,
2A,
5B,
1E,
51,
24,
03,
00,
C0,
09,
25,
01,
1B,
AB,
1C,
55,
09,
37,
29,
02,
06,
09,
03,
37,
1B,
6D,
09,
04,
0C,
92,
6C,
AB,
00,
25,
AD,
42,
03,
38,
D9,
00,
9C,
00,
87,
09,
02,
0B,
00,
00,
A4,
51,
36,
5A,
52,
03,
84,
41,
06,
00,
03,
70,
1B,
5A,
67,
51,
3E,
09,
00,
01,
A2,
1B,
12,
01,
02,
06,
02,
00,
1B,
69,
00,
00,
66,
01,
65,
03,
04,
A5,
53,
0C,
00,
09,
D5,
51,
C2,
00,
03,
37,
03,
01,
5A,
39,
07,
B4,
51,
0C,
59,
30,
75,
02,
09,
5A,
1B,
63,
54,
53,
1C,
0E,
00,
B4,
1D,
06,
03,
52,
1B,
1C,
02,
BE,
30,
00,
48,
59,
01,
01,
1B,
52,
1B,
51,
CF,
12,
13,
00,
0C,
B4,
51,
3F,
5B,
00,
A3,
18,
01,
52,
0C,
0F,
01,
A2,
00,
00,
00,
6F,
1B,
01,
60,
39,
55,
5C,
02,
00,
37,
13,
0A,
0C,
51,
03,
67,
1C,
6E,
2D,
63,
1B,
90,
00,
01,
A5,
6C,
90,
37,
08,
03,
00,
0E,
21,
48,
6C,
25,
12,
0F,
01,
00,
66,
0A,
00,
39,
00,
A2,
1B,
54,
0F,
00,
25,
2D,
53,
09,
16,
09,
19,
01,
1B,
B4,
03,
A2,
0B,
03,
03,
4D,
87,
02,
27,
05,
18,
0B,
02,
5B,
3F,
01,
88,
06,
03,
03,
00,
57,
01,
06,
09,
37,
0B,
01,
1B,
5A,
1B,
58,
3B,
01,
27,
01,
01,
0C,
09,
1B,
BC,
3C,
20,
03,
0A,
37,
51,
06,
5B,
28,
C3,
A2,
00,
57,
51,
8B,
A2,
1B,
01,
02,
0F,
03,
99,
12,
12,
A4,
33,
01,
26,
00,
09,
0C,
8D,
A8,
0F,
12,
3F,
37,
0D,
17,
0D,
3F,
51,
45,
06,
61,
00,
01,
00,
2D,
3A,
2E,
1B,
C0,
1F,
02,
6C,
1B,
51,
27,
03,
36,
08,
51,
1B,
1C,
AF,
12,
00,
01,
6F,
75,
12,
00,
51,
15,
5D,
36,
36,
26,
00,
5D,
01,
02,
1F,
09,
54,
A5,
00,
51,
52,
03,
68,
02,
05,
D8,
02,
08,
40,
00,
00,
09,
06,
51,
A6,
3F,
A2,
0B,
3F,
2D,
13,
AC,
02,
1B,
04,
1C,
00,
12,
00,
A3,
69,
51,
E3,
00,
2D,
1B,
3C,
51,
C3,
36,
00,
A8,
25,
6C,
1B,
39,
36,
D9,
06,
1B,
00,
0C,
30,
5A,
2D,
86,
12,
51,
51,
02,
00,
03,
12,
06,
01,
12,
01,
05,
09,
51,
3D,
12,
1B,
00,
E1,
17,
6C,
58,
06,
A2,
09,
36,
13,
36,
00,
9E,
0A,
00,
62,
8F,
BD,
07,
51,
1B,
A2,
A2,
A3,
02,
24,
A2,
03,
09,
09,
D9,
87,
01,
15,
09,
52,
AB,
37,
A5,
42,
00,
42,
E0,
00,
06,
79,
54,
6C,
00,
1B,
BD,
0C,
07,
00,
58,
03,
02,
36,
0F,
04,
1C,
3F,
B4,
1B,
1E,
48,
AB,
03,
52,
03,
1B,
00,
12,
A9,
32,
00,
1B,
2D,
00,
B0,
75,
54,
05,
00,
51,
09,
49,
09,
01,
00,
07,
00,
00,
53,
F0,
50,
65,
C2,
2E,
01,
0A,
4A,
00,
00,
7E,
53,
37,
14,
38,
59,
06,
00,
08,
39,
0D,
00,
51,
00,
2D,
02,
DA,
00,
12,
00,
12,
09,
09,
02,
A2,
14,
1D,
09,
03,
01,
A3,
B1,
00,
09,
87,
0C,
15,
00,
A3,
00,
03,
00,
37,
3F,
18,
36,
54,
0C,
09,
51,
A6,
03,
09,
1B,
A6,
06,
48,
5A,
AB,
00,
52,
37,
88,
6C,
90,
00,
03,
00,
13,
09,
01,
01,
A5,
3F,
AB,
0F,
2D,
00,
36,
36,
54,
02,
24,
51,
07,
63,
26,
00,
36,
51,
1F,
5C,
51,
36,
03,
00,
29,
00,
51,
64,
52,
51,
B7,
27,
36,
00,
C6,
5A,
A4,
51,
B4,
06,
55,
51,
5A,
0A,
28,
60,
D8,
01,
5E,
03,
A6,
51,
1B,
8D,
88,
1A,
00,
03,
09,
16,
1B,
63,
51,
00,
A6,
1B,
A3,
02,
00,
63,
41,
D8,
1B,
0F,
37,
EB,
6C,
00,
C6,
0D,
1B,
00,
00,
02,
03,
00,
38,
13,
1B,
53,
04,
63,
53,
A3,
00,
00,
48,
01,
57,
01,
02,
02,
D8,
18,
AD,
01,
75,
12,
A2,
2D,
00,
54,
01,
00,
3E,
00,
2D,
35,
40,
02,
12,
87,
01,
03,
00,
09,
BD,
12,
08,
B6,
09,
6C,
6D,
5A,
02,
00,
09,
B0,
00,
03,
5A,
5B,
08,
BD,
1B,
12,
07,
1F,
00,
09,
03,
00,
14,
0C,
1A,
5A,
02,
00,
15,
39,
57,
01,
36,
55,
52,
01,
00,
01,
65,
00,
65,
BD,
6F,
06,
51,
A8,
1B,
51,
12,
14,
0D,
1D,
02,
13,
04,
AC,
6C,
1B,
07,
A3,
02,
1B,
00,
D8,
00,
80,
09,
00,
00,
B6,
02,
E0,
01,
02,
48,
5A,
1D,
09,
51,
6C,
A4,
51,
00,
02,
1D,
06,
36,
52,
A2,
00,
6D,
00,
1B,
53,
51,
95,
CF,
6C,
54,
03,
04,
36,
09,
C2,
6C,
1B,
6C,
CD,
00,
51,
05,
0E,
21,
36,
06,
13,
2D,
24,
14,
39,
21,
75,
63,
AE,
A2,
1B,
B6,
40,
24,
1C,
37,
00,
08,
07,
37,
0B,
57,
1B,
48,
3F,
01,
00,
1D,
57,
03,
15,
36,
3B,
02,
72,
63,
A3,
0F,
51,
A3,
51,
00,
40,
2D,
D8,
D8,
1E,
12,
31,
00,
00,
52,
02,
00,
0C,
3C,
00,
C2,
01,
09,
24,
00,
38,
15,
51,
00,
5D,
5A,
2F,
65,
00,
37,
12,
90,
8B,
00,
02,
E7,
0F,
A8,
8F,
54,
A2,
00,
AB,
1C,
6F,
53,
01,
6D,
15,
54,
51,
51,
0B,
04,
88,
36,
6D,
00,
1B,
00,
56,
15,
07,
1B,
A9,
DE,
21,
63,
D2,
51,
0A,
A4,
15,
55,
24,
01,
06,
40,
3A,
00,
63,
13,
8A,
06,
06,
A3,
0F,
03,
80,
07,
00,
0B,
00,
01,
01,
06,
09,
00,
51,
08,
1E,
36,
00,
39,
36,
24,
39,
1D,
09,
06,
38,
61,
1E,
A3,
02,
87,
AD,
30,
39,
AB,
1B,
00,
5B,
AC,
09,
00,
1B,
07,
22,
87,
03,
3F,
01,
87,
1B,
12,
02,
01,
A5,
36,
B5,
00,
00,
36,
00,
60,
39,
00,
02,
6E,
6C,
1D,
12,
0F,
05,
03,
3C,
A3,
A3,
33,
67,
01,
00,
A5,
00,
0B,
00,
04,
6E,
00,
06,
51,
02,
51,
00,
01,
21,
3C,
6B,
03,
4E,
9A,
BD,
51,
A2,
03,
A4,
09,
0C,
52,
06,
1B,
14,
48,
52,
1F,
5D,
31,
03,
0C,
0F,
02,
51,
1B,
21,
00,
1B,
1E,
00,
76,
00,
51,
01,
00,
5B,
89,
A2,
07,
A3,
B2,
01,
1C,
00,
00,
90,
5A,
00,
5B,
1B,
03,
06,
98,
03,
21,
BE,
00,
0F,
01,
00,
1B,
0A,
00,
8F,
A2,
13,
D8,
51,
A2,
00,
00,
1E,
A3,
B4,
AD,
00,
01,
22,
00,
1E,
09,
A5,
24,
17,
00,
6C,
00,
00,
C0,
51,
52,
00,
B1,
A3,
22,
39,
00,
B4,
01,
02,
00,
3E,
04,
BB,
03,
00,
0D,
51,
00,
12,
00,
52,
A2,
00,
38,
71,
5A,
72,
A2,
A8,
18,
05,
51,
21,
38,
06,
00,
00,
39,
37,
A2,
00,
0A,
AB,
01,
3B,
00,
6F,
05,
36,
51,
3C,
00,
00,
37,
09,
02,
88,
51,
52,
00,
00,
52,
2A,
24,
1B,
57,
51,
06,
A3,
6C,
00,
00,
00,
24,
06,
00,
BD,
51,
AB,
13,
3A,
02,
55,
24,
1B,
24,
00,
A6,
A6,
0B,
51,
66,
53,
09,
6C,
01,
3F,
4B,
51,
D4,
7E,
9A,
01,
27,
0C,
87,
5A,
03,
5A,
00,
1E,
6C,
00,
00,
00,
5D,
78,
01,
24,
1C,
00,
75,
00,
03,
00,
37,
79,
00,
01,
52,
10,
6F,
00,
01,
51,
1B,
6D,
09,
09,
5D,
01,
27,
09,
03,
09,
00,
00,
1E,
00,
03,
01,
00,
1E,
03,
09,
03,
1E,
24,
01,
09,
00,
65,
52,
52,
03,
00,
02,
09,
1B,
0D,
1F,
51,
00,
F0,
03,
13,
15,
52,
0C,
08,
00,
0C,
02,
25,
40,
E0,
D8,
51,
24,
00,
A8,
02,
57,
04,
1C,
4B,
A8,
03,
1E,
1B,
7A,
4E,
00,
02,
51,
00,
01,
B4,
00,
1C,
0A,
25,
09,
06,
0C,
6D,
0D,
76,
5B,
00,
57,
02,
09,
1B,
00,
63,
6E,
00,
75,
28,
3A,
DC,
01,
1B,
0A,
0D,
03,
1E,
00,
0A,
09,
1E,
12,
87,
5A,
00,
1E,
A2,
0C,
1B,
28,
93,
51,
04,
53,
1C,
01,
09,
00,
5A,
1B,
28,
5B,
00,
25,
09,
00,
55,
1B,
1B,
04,
5B,
09,
24,
24,
27,
1E,
54,
6C,
01,
54,
0A,
25,
00,
04,
6D,
00,
00,
03,
52,
52,
36,
8D,
56,
78,
01,
DB,
12,
00,
09,
51,
51,
1B,
09,
5A,
00,
52,
48,
52,
57,
01,
75,
25,
1B,
04,
60,
1F,
25,
22,
6C,
A2,
1E,
0A,
52,
03,
04,
76,
0D,
04,
00,
6D,
6F,
00,
09,
1F,
1B,
1F,
AB,
52,
00,
1B,
04,
00,
09,
1E,
51,
1C,
A9,
4A,
24,
0C,
0A,
5D,
12,
12,
54,
5A,
0A,
01,
AE,
02,
52,
25,
1C,
04,
EA,
54,
0A,
1B,
8A,
48,
53,
51,
03,
00,
00,
5D,
52,
6F,
0D,
1B,
9F,
24,
25,
1E,
00,
00,
28,
55,
6D,
24,
38,
0A,
1B,
25,
76,
0D,
1B,
1C,
1C,
5A,
00,
6F,
0A,
5E,
76,
03,
03,
75,
5D,
27,
04,
01,
70,
5A,
1E,
0A,
25,
00,
03,
6C,
08,
94,
63,
00,
12,
0C,
36,
00,
4B,
00,
BD,
2D,
5E,
06,
41,
1B,
02,
54,
00,
00,
0F,
09,
52,
00,
09,
3C,
2E,
00,
0F,
5B,
45,
51,
36,
00,
E1,
01,
00,
36,
00,
12,
1E,
09,
75,
B2,
00,
5A,
1B,
1E,
03,
00,
04,
55,
00,
09,
09,
0F,
0A,
00,
41,
02,
14,
A2,
03,
00,
15,
0D,
1D,
1B,
25,
00,
3A,
3F,
09,
21,
51,
77,
1A,
09,
DB,
B4,
51,
3F,
14,
51,
00,
6D,
01,
01,
00,
A6,
16,
4D,
40,
09,
0B,
00,
C7,
6C,
13,
5B,
36,
01,
58,
23,
68,
02,
6C,
00,
51,
03,
1B,
54,
63,
51,
03,
A5,
9A,
00,
01,
02,
18,
B2,
00,
BD,
00,
01,
00,
00,
58,
09,
1B,
B4,
00,
EA,
00,
01,
03,
A2,
00,
0A,
51,
02,
A5,
A4,
55,
57,
51,
03,
AE,
DB,
1B,
6F,
01,
BD,
51,
A2,
00,
A4,
1B,
40,
01,
02,
1B,
1E,
51,
27,
BF,
A2,
01,
00,
06,
15,
3A,
07,
24,
0F,
0A,
00,
03,
00,
03,
03,
07,
C0,
0F,
04,
12,
51,
E4,
51,
28,
63,
51,
51,
18,
6F,
2D,
02,
AB,
51,
6E,
06,
64,
36,
1F,
6F,
B4,
B6,
03,
02,
02,
BD,
02,
21,
10,
5A,
00,
82,
5A,
36,
51,
22,
01,
09,
AE,
A8,
06,
01,
3B,
00,
12,
09,
0A,
A5,
1D,
1B,
1D,
52,
07,
B4,
39,
63,
A4,
06,
36,
51,
5D,
00,
87,
01,
1C,
C6,
00,
24,
0C,
12,
40,
51,
A5,
58,
37,
18,
A2,
24,
00,
75,
03,
60,
00,
51,
5D,
2D,
01,
B4,
0B,
51,
59,
51,
A2,
0A,
51,
00,
AC,
A3,
06,
1B,
0F,
98,
00,
01,
51,
24,
00,
00,
A5,
01,
1B,
00,
00,
01,
A4,
0B,
6C,
25,
36,
1E,
02,
00,
03,
A5,
02,
51,
53,
21,
52,
00,
96,
24,
02,
88,
A2,
01,
00,
54,
A2,
0C,
1B,
23,
1F,
04,
87,
25,
03,
00,
0C,
02,
42,
02,
02,
7E,
03,
00,
00,
0F,
15,
37,
09,
35,
B7,
01,
87,
87,
07,
36,
53,
12,
39,
02,
51,
00,
0B,
18,
1B,
2C,
1B,
57,
A8,
90,
00,
6C,
54,
00,
0C,
13,
25,
3F,
34,
AD,
5A,
3F,
09,
37,
02,
48,
1E,
4A,
EA,
0F,
63,
00,
00,
00,
22,
03,
01,
00,
15,
A2,
A3,
00,
CF,
02,
02,
A4,
00,
24,
AB,
B4,
2D,
1B,
8E,
00,
5F,
33,
24,
00,
02,
03,
37,
75,
2A,
B5,
1B,
0B,
36,
17,
85,
01,
A4,
55,
0D,
52,
09,
51,
04,
06,
AB,
A5,
53,
2D,
78,
18,
54,
01,
A5,
1E,
A2,
03,
45,
8A,
AB,
04,
52,
00,
89,
15,
24,
00,
D0,
01,
1B,
51,
0A,
75,
E4,
01,
00,
20,
09,
13,
13,
AE,
03,
03,
1B,
3C,
C1,
03,
54,
D8,
01,
1B,
00,
1B,
05,
07,
02,
00,
AD,
0B,
1F,
36,
52,
12,
1B,
AB,
09,
40,
A7,
15,
00,
6D,
00,
A2,
51,
57,
0A,
09,
27,
01,
87,
09,
26,
5A,
A2,
AB,
00,
11,
51,
06,
0E,
B4,
D0,
1C,
15,
00,
9F,
00,
06,
00,
09,
99,
00,
36,
8A,
40,
A8,
00,
00,
2F,
75,
1F,
1B,
36,
02,
09,
02,
1B,
4E,
51,
02,
36,
8D,
00,
DC,
09,
06,
09,
52,
06,
AC,
09,
1C,
00,
41,
EA,
1B,
00,
10,
1D,
21,
00,
36,
3F,
5A,
00,
06,
51,
36,
52,
03,
D8,
03,
6C,
63,
0C,
1F,
03,
63,
72,
A3,
00,
E7,
00,
01,
63,
00,
C2,
00,
02,
01,
25,
1C,
16,
51,
01,
00,
24,
03,
36,
00,
4B,
36,
01,
0A,
90,
36,
52,
6E,
00,
09,
5D,
12,
2C,
D8,
03,
06,
00,
00,
2D,
02,
03,
0A,
00,
06,
87,
5D,
57,
00,
37,
0C,
00,
09,
56,
37,
BD,
00,
C0,
75,
5C,
09,
C0,
CE,
00,
01,
0F,
09,
E1,
0C,
00,
6C,
00,
57,
12,
D9,
DE,
5A,
A8,
57,
09,
00,
01,
AB,
08,
51,
09,
00,
51,
09,
36,
18,
45,
15,
08,
15,
51,
03,
00,
1E,
0F,
37,
0C,
AB,
36,
39,
0D,
12,
6C,
02,
01,
3F,
01,
99,
59,
A2,
12,
04,
39,
63,
5B,
00,
39,
03,
21,
1B,
1E,
33,
03,
2E,
00,
ED,
A8,
57,
02,
00,
01,
6C,
00,
AE,
52,
6F,
72,
1B,
5A,
00,
06,
8B,
A2,
36,
09,
02,
70,
00,
12,
0C,
4B,
21,
DB,
B1,
38,
00,
1D,
01,
21,
36,
A2,
3E,
BE,
5A,
5A,
B0,
0B,
54,
A2,
AA,
A3,
57,
00,
42,
3F,
AB,
6C,
5B,
D8,
AE,
00,
1C,
12,
0A,
37,
01,
54,
09,
A7,
A3,
A5,
A2,
2D,
8A,
1B,
03,
AC,
87,
4C,
CF,
40,
06,
AB,
63,
A2,
59,
12,
09,
12,
0B,
14,
52,
75,
1B,
01,
11,
00,
51,
03,
00,
0A,
27,
06,
07,
00,
36,
57,
3F,
12,
18,
0C,
01,
00,
6D,
12,
32,
51,
76,
3A,
15,
5D,
E1,
51,
00,
66,
A2,
1B,
00,
6D,
A2,
00,
07,
00,
2E,
A8,
5A,
12,
42,
1F,
01,
A5,
6F,
03,
70,
89,
1B,
04,
18,
1B,
38,
07,
2D,
3C,
09,
3F,
51,
A5,
24,
15,
3F,
01,
36,
B4,
00,
21,
00,
52,
3B,
09,
A2,
00,
51,
A5,
22,
06,
06,
06,
11,
51,
A2,
1B,
6D,
1B,
00,
37,
36,
D0,
00,
0A,
01,
09,
21,
5F,
30,
00,
03,
00,
03,
45,
05,
57,
04,
00,
08,
13,
01,
03,
1B,
5D,
1C,
60,
AA,
2B,
02,
1E,
1E,
A2,
AB,
00,
03,
36,
C3,
20,
6C,
54,
03,
1C,
24,
75,
55,
70,
0D,
09,
00,
5A,
04,
6D,
03,
03,
1B,
03,
0A,
6C,
6C,
1E,
0A,
27,
5B,
27,
15,
5D,
04,
1B,
5A,
28,
03,
24,
00,
04,
0C,
1F,
01,
1C,
06,
AF,
00,
00,
04,
36,
24,
36,
53,
00,
00,
63,
15,
14,
00,
52,
03,
AA,
1A,
BA,
66,
1C,
36,
F2,
59,
02,
03,
A6,
F0,
A2,
A2,
12,
28,
B4,
00,
99,
18,
02,
CA,
B4,
BD,
A4,
14,
51,
A5,
69,
00,
DE,
1D,
5A,
51,
78,
B4,
AA,
5A,
75,
51,
A6,
4E,
1D,
04,
51,
55,
01,
06,
1D,
01,
5E,
1F,
08,
21,
52,
79,
54,
7F,
5B,
25,
75,
1B,
A6,
6E,
28,
52,
6C,
28,
A8,
78,
5B,
0A,
27,
01,
37,
6F,
6C,
0C,
4B,
9B,
09,
51,
00,
28,
00,
1E,
03,
0C,
01,
51,
03,
00,
51,
00,
0D,
00,
0D,
00,
0A,
00,
01,
1B,
12,
36,
66,
00,
0C,
09,
9C,
51,
AE,
25,
05,
3C,
08,
06,
10,
51,
24,
24,
36,
6C,
09,
CF,
A4,
A2,
AE,
11,
0E,
1E,
01,
02,
09,
D8,
B8,
3D,
0B,
06,
00,
A5,
37,
00,
05,
2A,
66,
D9,
16,
AE,
02,
A5,
C3,
06,
21,
39,
00,
2D,
0A,
00,
A2,
0F,
A2,
2D,
09,
06,
1B,
91,
00,
A2,
37,
53,
06,
3C,
1E,
0B,
DC,
06,
09,
06,
25,
09,
00,
00,
22,
00,
A2,
2E,
0C,
52,
00,
3A,
1E,
03,
53,
22,
55,
49,
26,
1E,
11,
79,
07,
00,
70,
D8,
02,
00,
A2,
06,
63,
3B,
24,
6F,
00,
03,
09,
1B,
00,
DC,
00,
44,
00,
3C,
51,
36,
00,
09,
B4,
03,
3A,
51,
BD,
68,
54,
A4,
00,
4C,
01,
A8,
63,
C0,
01,
06,
51,
36,
51,
76,
36,
37,
00,
79,
00,
5A,
1E,
09,
09,
00,
36,
00,
1B,
52,
C0,
37,
00,
1C,
02,
01,
00,
54,
57,
0C,
1B,
63,
36,
01,
27,
A2,
09,
48,
54,
5D,
00,
00,
60,
37,
1B,
0E,
09,
06,
51,
04,
00,
B4,
36,
1B,
53,
06,
0B,
1B,
1B,
12,
00,
25,
DB,
6C,
AB,
54,
06,
36,
01,
2A,
03,
1B,
00,
2F,
1B,
08,
00,
8B,
1B,
1E,
0D,
A1,
03,
0C,
6C,
56,
1B,
00,
09,
12,
00,
06,
6C,
53,
09,
51,
3F,
06,
65,
05,
00,
09,
BD,
51,
3F,
A2,
A4,
A2,
AD,
07,
00,
00,
06,
E4,
3C,
01,
3C,
05,
45,
67,
A4,
0B,
0F,
21,
36,
A8,
2A,
11,
0A,
AB,
1B,
06,
51,
8B,
99,
A2,
03,
1B,
03,
00,
12,
07,
00,
03,
15,
BD,
02,
00,
63,
52,
00,
01,
51,
36,
3B,
3A,
0C,
A5,
1B,
5A,
1B,
09,
00,
1B,
B1,
0A,
0A,
00,
51,
DE,
05,
09,
00,
75,
51,
0B,
06,
C0,
33,
1C,
12,
A8,
65,
09,
38,
0C,
02,
0C,
EC,
37,
08,
00,
5C,
42,
03,
04,
A3,
0C,
51,
64,
03,
09,
00,
38,
06,
00,
1B,
00,
8E,
00,
8D,
54,
5A,
15,
00,
A2,
00,
38,
3F,
00,
0D,
02,
00,
06,
24,
90,
51,
1B,
14,
21,
02,
00,
03,
00,
6C,
05,
3E,
38,
01,
5A,
15,
00,
00,
59,
64,
1B,
24,
A2,
6C,
09,
1B,
09,
3A,
09,
00,
5C,
12,
07,
0F,
1C,
37,
12,
07,
87,
A2,
89,
29,
1B,
1B,
00,
03,
6E,
45,
0C,
EA,
00,
63,
B4,
D0,
09,
04,
A2,
1C,
0F,
56,
1C,
EA,
1B,
A8,
21,
A7,
75,
02,
07,
26,
37,
63,
A2,
00,
00,
1E,
25,
A2,
56,
13,
51,
08,
12,
1B,
1B,
1B,
51,
6C,
04,
02,
A2,
15,
51,
8A,
01,
07,
1E,
1C,
3A,
1C,
2F,
03,
01,
09,
39,
01,
36,
3E,
55,
69,
24,
38,
04,
0B,
A2,
54,
00,
5A,
09,
51,
03,
8D,
1B,
0C,
02,
00,
36,
5B,
00,
06,
00,
53,
0A,
24,
01,
09,
06,
00,
00,
00,
58,
3F,
51,
24,
B5,
6C,
3F,
01,
12,
6C,
6C,
90,
3D,
3B,
1B,
D8,
15,
23,
51,
01,
30,
22,
BD,
51,
12,
51,
36,
57,
36,
00,
49,
03,
90,
17,
26,
1B,
15,
02,
17,
A9,
57,
00,
8A,
03,
02,
03,
02,
45,
08,
00,
00,
E0,
57,
51,
C1,
36,
1B,
B4,
51,
87,
0C,
24,
09,
51,
66,
36,
24,
5A,
12,
A2,
09,
00,
10,
1B,
37,
5A,
1B,
52,
0D,
0F,
53,
06,
16,
5A,
1B,
01,
63,
1C,
60,
53,
00,
A3,
0F,
53,
33,
51,
3A,
56,
00,
01,
01,
AC,
55,
00,
0D,
24,
01,
1B,
00,
94,
6F,
00,
0B,
54,
6C,
20,
5D,
C0,
03,
5D,
04,
02,
01,
16,
24,
51,
16,
06,
72,
DD,
00,
37,
7D,
14,
1C,
98,
36,
01,
36,
01,
54,
01,
01,
06,
54,
00,
19,
9A,
54,
A2,
1E,
1B,
00,
00,
36,
3F,
00,
00,
36,
18,
00,
93,
1B,
B6,
5C,
1D,
03,
10,
06,
12,
01,
DC,
2A,
12,
A2,
45,
40,
0D,
1C,
1E,
AD,
00,
51,
6C,
53,
A2,
0D,
1B,
24,
04,
A2,
38,
70,
20,
51,
00,
57,
BD,
03,
10,
00,
1B,
A2,
BD,
2B,
07,
AC,
00,
02,
0A,
1D,
AB,
6E,
3C,
01,
A2,
1B,
5E,
01,
6C,
0F,
07,
78,
33,
1B,
00,
A2,
0B,
24,
03,
A5,
0B,
0C,
70,
03,
D8,
A4,
A2,
6C,
01,
36,
13,
03,
A2,
9F,
01,
00,
1B,
00,
40,
41,
A2,
6D,
07,
51,
40,
8D,
36,
55,
04,
E4,
51,
49,
4B,
14,
1D,
00,
00,
0B,
11,
A2,
00,
51,
05,
5D,
6D,
3F,
21,
5E,
63,
70,
78,
4E,
20,
1B,
39,
00,
00,
0D,
07,
5A,
12,
03,
63,
A2,
24,
51,
00,
05,
09,
05,
AC,
A3,
43,
36,
09,
EC,
04,
36,
A5,
31,
01,
0C,
A3,
06,
0A,
6E,
00,
6C,
48,
02,
37,
00,
A3,
15,
0A,
00,
12,
87,
36,
06,
1B,
63,
0C,
66,
06,
E1,
00,
1B,
C3,
56,
00,
C8,
09,
00,
00,
AF,
21,
00,
14,
87,
60,
05,
03,
03,
73,
36,
87,
01,
AB,
87,
01,
1D,
24,
2D,
A3,
2D,
5D,
A2,
00,
1F,
54,
18,
51,
27,
02,
08,
0C,
D8,
2F,
3C,
00,
06,
A4,
00,
39,
1C,
02,
A2,
1B,
00,
51,
01,
D8,
00,
03,
00,
05,
57,
1B,
E2,
03,
36,
09,
51,
9F,
1B,
CF,
1D,
39,
AB,
0F,
05,
1B,
00,
02,
09,
00,
58,
0C,
07,
55,
63,
03,
38,
51,
00,
1E,
14,
00,
27,
A2,
01,
0D,
03,
01,
57,
3A,
1B,
1B,
09,
13,
6F,
00,
1B,
C0,
9C,
30,
A9,
51,
00,
01,
12,
01,
0A,
7B,
A2,
0A,
02,
06,
1B,
6F,
52,
3F,
51,
B5,
00,
0B,
01,
27,
02,
48,
B3,
1E,
00,
2D,
01,
1E,
00,
A3,
03,
00,
09,
5D,
09,
02,
1F,
00,
1F,
09,
36,
A2,
07,
51,
03,
01,
A8,
03,
6D,
87,
00,
A2,
06,
36,
AE,
38,
A2,
55,
51,
69,
00,
21,
5D,
51,
0A,
00,
65,
51,
55,
6F,
39,
A8,
51,
0C,
03,
03,
7B,
06,
00,
42,
A3,
39,
EA,
1B,
09,
72,
A4,
2D,
99,
06,
06,
6D,
A4,
BB,
4B,
00,
51,
00,
00,
5C,
54,
AD,
0A,
00,
00,
41,
BD,
03,
54,
18,
00,
3C,
00,
04,
06,
00,
09,
0A,
87,
01,
51,
04,
D8,
00,
04,
1B,
7A,
54,
5B,
0B,
1B,
09,
51,
6C,
1B,
0C,
00,
51,
1B,
00,
37,
0C,
13,
1B,
18,
51,
03,
72,
58,
00,
5B,
52,
00,
A4,
01,
25,
51,
95,
00,
1D,
01,
00,
87,
04,
03,
66,
00,
1B,
39,
00,
06,
54,
3C,
8F,
00,
2F,
00,
EA,
A8,
6D,
39,
1E,
04,
06,
39,
00,
1B,
5A,
AB,
02,
6C,
12,
5B,
75,
B4,
00,
93,
12,
06,
00,
01,
54,
12,
01,
54,
48,
00,
B1,
BE,
04,
36,
12,
A2,
63,
C0,
24,
09,
0F,
06,
C6,
DC,
01,
03,
09,
36,
55,
AB,
C1,
1E,
4A,
00,
77,
52,
00,
5A,
09,
01,
06,
00,
01,
1B,
09,
6C,
AD,
AB,
0F,
00,
01,
00,
00,
51,
BD,
02,
57,
2E,
00,
23,
0A,
52,
63,
00,
1B,
4E,
6F,
5D,
02,
1D,
1B,
2E,
07,
36,
18,
09,
3F,
26,
00,
52,
51,
00,
1F,
03,
72,
21,
42,
00,
04,
54,
3A,
E0,
01,
36,
0B,
0D,
00,
01,
74,
08,
91,
18,
01,
72,
81,
39,
03,
00,
09,
1B,
09,
A2,
1E,
00,
1B,
6F,
56,
03,
00,
00,
09,
19,
AB,
00,
7E,
00,
56,
B8,
1B,
02,
2D,
03,
5D,
00,
1E,
21,
12,
11,
25,
1B,
0A,
12,
00,
AB,
12,
03,
66,
04,
2B,
00,
00,
2D,
00,
02,
00,
12,
00,
03,
A5,
09,
00,
53,
99,
09,
1E,
11,
0B,
63,
01,
01,
36,
54,
18,
03,
23,
26,
03,
AD,
7D,
03,
36,
02,
5C,
00,
31,
48,
75,
15,
00,
02,
87,
1C,
00,
00,
A2,
1B,
37,
8B,
12,
00,
12,
12,
37,
03,
1D,
09,
B1,
06,
08,
23,
04,
49,
57,
02,
00,
1C,
05,
12,
05,
1F,
00,
0A,
A2,
AB,
00,
00,
00,
C3,
04,
03,
09,
00,
06,
6E,
0C,
12,
A2,
51,
30,
00,
5C,
2D,
75,
03,
30,
1C,
00,
66,
D9,
54,
DE,
5A,
1C,
00,
01,
67,
36,
87,
55,
01,
01,
0C,
1B,
E7,
12,
88,
25,
C9,
06,
51,
0A,
19,
1B,
1B,
5A,
2E,
36,
07,
1D,
A8,
51,
0B,
1B,
11,
26,
0D,
36,
01,
AB,
1D,
00,
00,
3A,
42,
72,
48,
01,
A2,
14,
51,
A2,
03,
13,
00,
21,
6E,
AA,
1C,
09,
00,
0C,
6C,
48,
00,
49,
00,
04,
1B,
AD,
5A,
B5,
A6,
00,
A2,
38,
02,
09,
01,
09,
53,
A2,
A4,
00,
15,
09,
51,
51,
B2,
D9,
0B,
A2,
A8,
A9,
03,
A4,
09,
87,
51,
70,
5B,
0C,
00,
51,
51,
B1,
00,
0C,
D8,
36,
58,
51,
CF,
48,
1E,
7E,
00,
6D,
09,
06,
09,
57,
12,
A2,
12,
57,
24,
07,
BD,
1E,
3C,
1B,
00,
03,
92,
B4,
18,
25,
57,
00,
0F,
55,
53,
9C,
4F,
06,
5A,
C7,
01,
01,
09,
2A,
2D,
01,
2B,
02,
01,
33,
BD,
00,
40,
1B,
87,
09,
91,
B5,
03,
0C,
6D,
03,
01,
0D,
54,
75,
09,
09,
0D,
09,
1B,
1F,
00,
75,
5B,
24,
51,
52,
1B,
5B,
04,
0C,
5B,
00,
B4,
02,
27,
03,
0C,
5A,
00,
52,
03,
36,
1C,
1F,
00,
5A,
25,
00,
00,
51,
00,
78,
70,
5B,
1C,
24,
1F,
25,
52,
24,
5A,
5C,
54,
1B,
51,
79,
1C,
0A,
01,
5D,
54,
0D,
52,
76,
1F,
54,
01,
00,
28,
24,
75,
03,
51,
00,
5D,
0C,
51,
0A,
02,
00,
52,
03,
00,
03,
1F,
1E,
03,
75,
02,
57,
00,
0C,
01,
01,
27,
7F,
09,
04,
0D,
02,
28,
51,
01,
01,
26,
A2,
63,
00,
24,
19,
75,
D8,
51,
6F,
51,
1E,
1E,
00,
5A,
09,
03,
76,
03,
1B,
51,
52,
1B,
09,
1B,
5A,
09,
5B,
00,
1E,
5A,
55,
09,
75,
54,
5A,
00,
03,
51,
6F,
5D,
6D,
0C,
6F,
51,
5A,
1E,
78,
6F,
06,
03,
D0,
12,
7D,
39,
0B,
BE,
51,
09,
75,
1C,
51,
00,
04,
03,
71,
01,
39,
78,
55,
0F,
A3,
03,
12,
03,
1C,
00,
00,
51,
A2,
00,
51,
1B,
05,
D8,
48,
3C,
1D,
60,
09,
00,
87,
DE,
A2,
69,
01,
00,
03,
1E,
57,
57,
00,
D5,
1F,
0C,
00,
51,
0D,
01,
05,
69,
00,
51,
A8,
38,
1F,
16,
09,
30,
00,
57,
2D,
00,
A2,
50,
36,
0B,
53,
00,
AB,
1B,
09,
52,
00,
A2,
36,
02,
00,
06,
00,
36,
B7,
D9,
A7,
00,
C4,
17,
36,
5A,
4E,
1E,
00,
0F,
02,
03,
00,
DB,
84,
57,
04,
03,
5B,
38,
6C,
A2,
00,
A2,
00,
00,
00,
1E,
B6,
5A,
03,
01,
BD,
12,
04,
5D,
00,
1D,
06,
57,
13,
1D,
5A,
60,
18,
0D,
00,
03,
09,
12,
01,
0A,
8A,
39,
00,
00,
03,
36,
A2,
37,
00,
24,
0D,
51,
55,
00,
28,
6C,
01,
28,
51,
04,
51,
75,
1B,
1B,
04,
0C,
04,
75,
78,
5D,
27,
1E,
00,
75,
54,
0A,
76,
03,
0A,
52,
55,
09,
0A,
02,
1E,
25,
1F,
00,
00,
0F,
1E,
09,
0A,
D8,
36,
24,
04,
01,
01,
12,
00,
1E,
01,
03,
00,
EA,
54,
55,
75,
02,
02,
9A,
52,
03,
0C,
BD,
01,
06,
52,
A5,
15,
00,
E0,
51,
00,
AF,
1B,
13,
06,
52,
03,
14,
00,
8A,
52,
25,
00,
01,
1B,
00,
5B,
24,
A2,
1B,
1B,
1C,
1C,
00,
02,
00,
1B,
1C,
0A,
02,
00,
55,
52,
5D,
D9,
12,
00,
1B,
01,
09,
13,
06,
51,
27,
1E,
1E,
00,
20,
03,
04,
52,
09,
48,
04,
20,
09,
5A,
06,
06,
5A,
0C,
03,
00,
01,
01,
00,
24,
75,
1B,
24,
6F,
0A,
54,
03,
04,
03,
51,
03,
5D,
75,
6D,
03,
6C,
00,
12,
55,
1B,
21,
09,
51,
5A,
AB,
67,
12,
00,
B1,
01,
3B,
03,
52,
CC,
51,
66,
55,
54,
66,
36,
52,
02,
39,
01,
A8,
01,
10,
0C,
36,
52,
06,
09,
08,
00,
57,
1D,
03,
BD,
75,
A3,
0F,
03,
00,
06,
00,
09,
05,
00,
09,
02,
D9,
18,
5A,
8A,
A5,
24,
51,
AB,
1E,
BD,
1B,
36,
00,
03,
3F,
00,
1E,
18,
00,
03,
BE,
01,
1F,
A8,
36,
58,
03,
03,
00,
0F,
21,
2A,
52,
03,
A4,
01,
A3,
13,
06,
03,
1E,
04,
5C,
03,
51,
91,
5C,
DB,
52,
39,
02,
06,
A9,
45,
B7,
64,
A5,
CF,
39,
1B,
09,
87,
00,
01,
8E,
A2,
00,
57,
0A,
0A,
4A,
04,
01,
1B,
52,
1B,
24,
36,
00,
0C,
00,
53,
03,
00,
12,
03,
1E,
1C,
1C,
B7,
07,
0B,
54,
51,
6C,
01,
18,
04,
00,
37,
09,
51,
1B,
05,
1B,
6C,
5B,
02,
01,
61,
5A,
51,
37,
06,
01,
05,
5A,
00,
A7,
2D,
6C,
31,
87,
7E,
00,
51,
1B,
5A,
5A,
6C,
03,
03,
0C,
09,
00,
03,
03,
00,
51,
00,
B4,
00,
09,
0D,
37,
48,
1B,
26,
51,
0E,
51,
06,
6E,
00,
00,
25,
BD,
51,
24,
51,
03,
05,
06,
F0,
03,
06,
63,
01,
18,
02,
28,
00,
04,
A3,
06,
14,
05,
22,
70,
6C,
B5,
09,
DB,
07,
6C,
1C,
00,
5D,
AB,
00,
03,
00,
07,
2E,
51,
01,
A2,
00,
03,
1B,
00,
A5,
1B,
01,
54,
04,
00,
00,
36,
21,
01,
1B,
89,
53,
A3,
1C,
36,
09,
1D,
66,
2D,
04,
51,
6C,
02,
53,
03,
1B,
04,
0C,
B0,
12,
00,
15,
36,
06,
57,
02,
9A,
A5,
12,
66,
01,
01,
00,
03,
00,
1B,
06,
03,
B8,
52,
63,
89,
1A,
52,
12,
52,
09,
01,
3F,
09,
BD,
03,
00,
2A,
1B,
37,
00,
1C,
18,
00,
58,
52,
00,
90,
00,
27,
03,
04,
A2,
30,
03,
52,
81,
0B,
3F,
D4,
40,
12,
03,
00,
23,
1B,
1B,
03,
52,
1B,
01,
78,
01,
4E,
09,
A3,
04,
13,
51,
0B,
53,
BF,
03,
01,
A3,
6C,
00,
09,
09,
00,
12,
1D,
5A,
53,
36,
04,
51,
BE,
6C,
5A,
09,
CD,
26,
27,
0C,
5A,
54,
00,
0D,
6C,
19,
05,
B0,
6C,
A2,
3B,
00,
51,
02,
01,
06,
51,
87,
00,
00,
D8,
4A,
1E,
09,
02,
87,
00,
12,
00,
A2,
A8,
03,
A2,
5D,
12,
02,
12,
14,
63,
12,
65,
B4,
36,
01,
51,
07,
13,
60,
49,
00,
00,
00,
48,
4E,
1B,
36,
5A,
54,
87,
1E,
51,
01,
1E,
03,
25,
00,
04,
00,
5D,
01,
00,
51,
54,
52,
51,
55,
AB,
09,
00,
51,
03,
5D,
05,
02,
02,
B7,
02,
1C,
0B,
03,
36,
1E,
C6,
12,
5B,
01,
04,
E0,
00,
13,
1B,
1C,
06,
00,
0A,
6D,
52,
09,
00,
B9,
01,
09,
91,
36,
05,
07,
1B,
00,
0B,
C6,
06,
A6,
0B,
51,
00,
00,
12,
36,
0C,
01,
5A,
00,
00,
00,
38,
1B,
51,
03,
41,
39,
09,
AE,
01,
87,
A2,
6C,
0A,
00,
06,
03,
2A,
63,
53,
6D,
00,
D8,
A2,
00,
00,
54,
06,
E1,
1B,
56,
A2,
A5,
1C,
A5,
0B,
5A,
0F,
12,
5C,
09,
09,
00,
5A,
00,
0C,
24,
00,
00,
00,
12,
4B,
36,
27,
12,
03,
D8,
2D,
63,
3F,
D8,
58,
8A,
4A,
48,
00,
EA,
51,
00,
5A,
0A,
00,
2F,
38,
00,
36,
00,
A2,
02,
3F,
03,
21,
A2,
00,
1C,
51,
06,
C8,
24,
26,
1B,
00,
A8,
2F,
00,
07,
12,
D8,
00,
A8,
07,
09,
1B,
12,
02,
1B,
24,
78,
BD,
51,
36,
03,
05,
24,
00,
01,
0C,
01,
4C,
A4,
00,
A8,
1B,
D0,
5D,
48,
36,
A4,
5A,
1B,
1E,
09,
6C,
1B,
39,
0A,
26,
A2,
09,
09,
76,
00,
04,
AB,
57,
02,
DA,
12,
51,
00,
49,
36,
3D,
54,
52,
A2,
15,
54,
09,
52,
36,
88,
0B,
00,
A5,
0A,
51,
37,
07,
2D,
03,
51,
03,
00,
03,
1B,
C0,
A8,
88,
71,
4B,
04,
38,
DE,
04,
61,
3F,
C0,
52,
00,
38,
00,
DE,
2E,
00,
01,
A2,
47,
58,
2C,
36,
06,
AD,
1F,
06,
15,
33,
00,
99,
51,
36,
92,
A3,
2D,
1B,
03,
A2,
6C,
01,
5B,
04,
A3,
01,
A4,
00,
01,
03,
04,
0A,
14,
03,
D8,
36,
01,
57,
63,
59,
6F,
40,
7E,
06,
87,
A8,
C9,
D9,
57,
C0,
1F,
00,
59,
BD,
5B,
36,
DA,
39,
12,
7F,
02,
B4,
02,
08,
55,
1C,
02,
A8,
19,
A5,
B4,
00,
05,
A2,
00,
1B,
87,
5B,
E1,
1B,
5A,
AB,
03,
8F,
23,
02,
2A,
09,
33,
10,
D8,
AC,
22,
A5,
0F,
04,
A2,
2D,
A3,
3C,
0F,
09,
24,
01,
00,
00,
28,
0D,
60,
12,
00,
00,
CF,
09,
51,
63,
03,
00,
54,
07,
68,
36,
52,
03,
51,
18,
45,
AB,
12,
00,
00,
2D,
1B,
14,
34,
27,
02,
32,
2F,
00,
6C,
5B,
2D,
00,
39,
00,
E0,
36,
18,
05,
A2,
E1,
1B,
2D,
00,
54,
01,
12,
A6,
06,
A4,
00,
00,
00,
AC,
01,
1B,
13,
52,
53,
63,
1E,
00,
0F,
6C,
51,
A2,
24,
0C,
1C,
03,
0A,
00,
40,
AC,
1C,
06,
57,
00,
5A,
12,
00,
10,
00,
35,
09,
00,
01,
63,
0F,
88,
03,
25,
1F,
00,
00,
25,
15,
01,
A6,
2F,
00,
57,
30,
51,
D1,
00,
AD,
1B,
0A,
1E,
36,
6D,
48,
36,
A2,
00,
40,
00,
03,
09,
C0,
09,
1B,
00,
07,
00,
2B,
51,
03,
00,
1B,
03,
03,
A2,
1B,
00,
0C,
6D,
57,
00,
09,
08,
5A,
02,
3C,
00,
00,
52,
AE,
01,
06,
00,
03,
00,
36,
54,
AB,
0D,
1E,
51,
B4,
03,
00,
00,
08,
1B,
A7,
BD,
1B,
03,
26,
36,
B4,
00,
A6,
00,
00,
53,
02,
54,
C0,
A2,
1E,
23,
24,
22,
9A,
54,
36,
3C,
06,
51,
87,
87,
09,
E1,
00,
53,
04,
52,
A5,
53,
01,
00,
0A,
00,
D8,
19,
73,
03,
1B,
03,
01,
1B,
4A,
02,
48,
BD,
24,
00,
5B,
01,
00,
06,
00,
46,
BF,
0B,
A2,
00,
04,
9C,
00,
87,
51,
0B,
00,
1E,
06,
3C,
54,
0A,
2E,
AC,
25,
1B,
51,
12,
03,
1B,
51,
6A,
09,
0A,
53,
55,
18,
04,
00,
0C,
E1,
01,
03,
39,
09,
24,
52,
5E,
89,
01,
24,
A5,
0D,
01,
15,
01,
6C,
87,
20,
3F,
00,
00,
01,
12,
03,
0D,
A9,
00,
12,
00,
00,
2E,
00,
1E,
00,
0A,
0F,
00,
B7,
1B,
53,
D9,
A2,
00,
06,
12,
66,
12,
01,
51,
09,
A5,
EA,
13,
81,
36,
09,
03,
27,
04,
05,
16,
55,
48,
00,
BD,
08,
27,
A2,
48,
02,
86,
15,
00,
00,
BE,
AC,
06,
72,
63,
01,
06,
51,
1C,
6C,
BE,
18,
12,
07,
CF,
0D,
A8,
2F,
0E,
1C,
1E,
03,
12,
06,
A2,
6D,
3F,
A2,
B4,
09,
1E,
01,
12,
00,
06,
12,
12,
1E,
03,
C3,
38,
36,
2F,
00,
36,
52,
00,
6D,
A2,
09,
A2,
36,
54,
C0,
00,
51,
07,
27,
C6,
BD,
06,
09,
00,
A2,
A2,
54,
01,
00,
0B,
09,
1B,
09,
1B,
02,
2D,
71,
AA,
3D,
51,
1B,
6F,
10,
02,
32,
6C,
06,
57,
09,
06,
36,
00,
54,
12,
5A,
01,
51,
AB,
52,
0A,
38,
1C,
03,
2B,
2A,
89,
6C,
01,
00,
72,
04,
36,
A2,
07,
51,
A6,
52,
07,
09,
3F,
00,
14,
15,
0B,
00,
00,
5A,
88,
12,
12,
0A,
15,
00,
1D,
51,
48,
53,
51,
26,
03,
54,
1B,
13,
5F,
0C,
3D,
4B,
B5,
1B,
52,
C8,
53,
52,
BF,
D8,
BD,
00,
D0,
06,
0A,
01,
70,
1C,
D8,
00,
06,
09,
00,
A2,
00,
0F,
00,
51,
26,
13,
36,
6C,
B2,
06,
6E,
06,
00,
39,
00,
76,
02,
51,
AB,
3F,
00,
09,
A2,
00,
A6,
09,
DB,
1B,
A2,
5C,
AB,
BB,
0D,
01,
0A,
75,
40,
54,
06,
1B,
1B,
09,
00,
00,
59,
1B,
A2,
1B,
01,
55,
0A,
54,
A3,
51,
51,
BD,
08,
A8,
51,
03,
02,
3A,
12,
00,
5D,
01,
AE,
1B,
6F,
12,
5A,
A2,
02,
12,
A2,
02,
53,
02,
51,
6E,
A5,
66,
01,
00,
00,
9A,
06,
04,
08,
1D,
16,
04,
1F,
1E,
26,
08,
03,
00,
07,
1B,
1B,
1B,
57,
15,
4B,
00,
51,
6C,
5A,
00,
5D,
36,
00,
00,
63,
0C,
51,
00,
03,
1C,
01,
16,
02,
69,
09,
00,
00,
01,
38,
36,
14,
04,
06,
0F,
1D,
00,
00,
0C,
A3,
09,
00,
A4,
51,
19,
00,
6B,
AC,
1B,
63,
14,
37,
1D,
2D,
09,
4C,
01,
01,
24,
A2,
1C,
06,
09,
02,
0A,
EE,
1E,
14,
E1,
5A,
D8,
5A,
09,
36,
12,
12,
5A,
36,
08,
00,
20,
AB,
C9,
52,
87,
00,
13,
17,
1B,
13,
9B,
00,
DB,
00,
1B,
87,
89,
00,
06,
94,
00,
06,
00,
2A,
00,
00,
0E,
02,
51,
51,
51,
09,
51,
E1,
12,
08,
BE,
00,
02,
00,
1B,
2A,
51,
AE,
00,
5B,
01,
00,
09,
00,
15,
72,
00,
24,
6C,
0E,
3A,
24,
00,
00,
53,
36,
12,
09,
00,
00,
09,
01,
14,
15,
AB,
DE,
09,
3D,
A3,
05,
AB,
C0,
A3,
00,
60,
1B,
65,
03,
02,
0D,
90,
30,
02,
41,
75,
00,
A2,
A3,
11,
A9,
12,
00,
0E,
DD,
02,
B6,
B4,
66,
24,
00,
02,
00,
52,
55,
00,
87,
D1,
DB,
1E,
21,
A2,
06,
0A,
B5,
0C,
2A,
38,
03,
27,
03,
90,
99,
09,
09,
39,
00,
B1,
00,
5A,
6F,
52,
1B,
1D,
5A,
51,
36,
6E,
52,
B3,
03,
1B,
0A,
00,
36,
02,
0F,
5A,
1B,
00,
00,
53,
0B,
06,
57,
2A,
D9,
D8,
07,
01,
07,
1C,
1B,
24,
A5,
63,
24,
14,
A2,
19,
00,
01,
1B,
00,
13,
A4,
1C,
51,
00,
09,
05,
63,
B1,
01,
54,
57,
5A,
1B,
BD,
1B,
03,
51,
5A,
09,
24,
14,
20,
71,
40,
09,
00,
06,
A5,
C3,
09,
0A,
00,
1E,
1B,
36,
00,
0A,
55,
27,
1C,
0D,
0C,
0C,
25,
51,
1F,
75,
25,
03,
55,
6F,
78,
5A,
54,
5A,
09,
5A,
00,
24,
55,
03,
25,
07,
0A,
0D,
00,
24,
01,
0A,
6C,
03,
49,
A2,
5A,
1B,
51,
AB,
12,
DE,
6F,
01,
24,
14,
1B,
13,
01,
51,
01,
04,
51,
73,
03,
00,
24,
1B,
7F,
1B,
00,
00,
0C,
00,
02,
01,
01,
03,
00,
18,
75,
24,
00,
1C,
00,
09,
5B,
25,
09,
03,
3E,
24,
28,
03,
AE,
00,
00,
03,
51,
54,
36,
06,
00,
55,
51,
0A,
A2,
A2,
1F,
00,
54,
A5,
48,
51,
54,
01,
78,
00,
3D,
29,
1E,
0D,
03,
0D,
57,
0A,
0D,
1B,
04,
48,
1E,
1E,
5A,
54,
01,
72,
1B,
5A,
1E,
0A,
03,
5A,
27,
1F,
1E,
02,
52,
0D,
54,
52,
00,
03,
1F,
6D,
5A,
01,
01,
00,
09,
6D,
03,
01,
5A,
0D,
04,
03,
36,
3C,
39,
3A,
97,
65,
01,
36,
2D,
D8,
00,
3C,
01,
1B,
36,
51,
6F,
01,
A2,
A2,
0C,
2F,
00,
D8,
0A,
6C,
54,
5A,
15,
0D,
A2,
0B,
18,
5A,
A2,
21,
12,
A4,
54,
51,
1D,
07,
12,
13,
89,
09,
08,
51,
36,
C6,
36,
09,
A4,
AC,
04,
22,
14,
12,
51,
36,
1B,
00,
87,
0F,
2D,
51,
51,
48,
A5,
01,
57,
01,
B5,
A2,
22,
0A,
DB,
39,
1B,
A2,
1B,
24,
0B,
57,
00,
A2,
1B,
00,
A5,
00,
6C,
51,
00,
54,
1E,
09,
00,
06,
A2,
00,
13,
93,
0A,
51,
36,
A5,
51,
06,
00,
02,
02,
A6,
27,
24,
BE,
BF,
03,
0F,
12,
05,
0C,
33,
00,
52,
3C,
51,
0F,
00,
01,
36,
41,
6F,
39,
75,
42,
6F,
09,
36,
00,
24,
15,
1E,
03,
52,
52,
AC,
03,
A7,
00,
53,
0D,
48,
04,
13,
6C,
60,
63,
6C,
D8,
04,
54,
AB,
00,
00,
01,
1F,
09,
A3,
01,
01,
A5,
00,
63,
5A,
0C,
6C,
00,
A2,
5A,
6D,
21,
0F,
06,
1B,
00,
09,
11,
00,
55,
39,
3E,
00,
01,
A8,
51,
06,
A3,
01,
09,
8E,
6C,
27,
12,
07,
00,
00,
06,
07,
51,
EA,
27,
09,
90,
09,
51,
00,
0A,
04,
24,
01,
09,
00,
51,
01,
36,
07,
7E,
38,
C0,
05,
08,
09,
57,
00,
51,
00,
00,
1B,
37,
00,
09,
0A,
00,
87,
21,
21,
00,
60,
9A,
A2,
36,
1B,
2D,
1B,
36,
48,
5D,
02,
00,
A5,
08,
66,
00,
76,
12,
3C,
15,
5C,
19,
63,
19,
03,
21,
3C,
88,
AB,
7B,
12,
1B,
8A,
04,
54,
09,
51,
09,
CC,
03,
06,
00,
1B,
00,
26,
00,
09,
5C,
03,
06,
89,
CF,
3C,
74,
07,
4E,
48,
01,
8D,
D8,
03,
36,
24,
08,
51,
90,
03,
1C,
28,
1E,
0A,
0C,
5A,
1B,
6C,
01,
55,
6F,
1B,
6D,
01,
1C,
00,
5D,
51,
54,
6D,
5E,
1B,
09,
03,
1B,
09,
1C,
09,
75,
0A,
5A,
12,
78,
00,
5E,
09,
63,
47,
04,
03,
09,
38,
01,
24,
52,
25,
12,
35,
A8,
0D,
5B,
A6,
18,
38,
00,
24,
75,
06,
DB,
5A,
5A,
01,
01,
D8,
18,
1B,
6C,
00,
B4,
57,
5B,
75,
01,
06,
A8,
01,
1E,
78,
BE,
38,
00,
6D,
6D,
01,
49,
00,
62,
00,
1F,
24,
13,
A8,
5C,
1C,
70,
0D,
41,
8F,
55,
75,
0C,
36,
A2,
02,
0A,
6C,
04,
51,
02,
01,
01,
75,
00,
36,
8F,
00,
5A,
0C,
D8,
00,
1B,
04,
0C,
A3,
A2,
5A,
0C,
5A,
24,
39,
DE,
54,
03,
03,
51,
A8,
21,
25,
01,
1B,
1B,
76,
76,
09,
00,
5B,
24,
1C,
00,
6D,
75,
00,
54,
28,
6D,
00,
0C,
1B,
54,
36,
00,
1B,
09,
03,
6F,
0A,
01,
1C,
09,
0D,
09,
58,
BD,
51,
0C,
02,
4E,
53,
03,
B4,
04,
15,
5B,
00,
54,
12,
12,
0D,
0A,
0D,
1B,
A5,
00,
09,
00,
53,
03,
69,
26,
1B,
BD,
12,
06,
02,
1B,
15,
01,
03,
1B,
06,
36,
D9,
5B,
36,
A5,
00,
03,
00,
1E,
38,
00,
15,
36,
00,
B4,
2D,
51,
1B,
60,
01,
12,
00,
A4,
0A,
00,
1E,
D8,
38,
6C,
00,
3F,
00,
37,
0C,
14,
54,
03,
21,
87,
0E,
42,
17,
87,
12,
18,
00,
A2,
0A,
51,
B7,
74,
9A,
6C,
03,
01,
3C,
5D,
03,
1C,
1C,
02,
12,
0D,
01,
09,
05,
88,
24,
06,
A3,
41,
04,
D0,
06,
1B,
12,
51,
3C,
03,
00,
36,
5A,
55,
00,
70,
19,
06,
72,
09,
1C,
00,
A2,
13,
13,
11,
52,
51,
25,
01,
00,
00,
51,
1C,
0A,
66,
09,
A5,
01,
1B,
01,
18,
1C,
5A,
23,
04,
37,
06,
0B,
51,
69,
0A,
DE,
36,
51,
51,
E4,
A9,
DA,
3E,
08,
A2,
04,
EA,
F2,
F2,
14,
75,
A3,
E0,
F2,
53,
51,
1E,
12,
D8,
02,
27,
57,
6F,
1F,
18,
79,
79,
78,
5E,
78,
78,
79,
8B,
6D,
70,
70,
79,
78,
1E,
25,
79,
57,
A2,
51,
24,
27,
F0,
F2,
6B,
2D,
00,
A2,
F2,
F2,
08,
04,
37,
F0,
F0,
50,
6C,
37,
B6,
BC,
48,
80,
A6,
B4,
F0,
2D,
3D,
3F,
39,
F0,
50,
09,
53,
51,
12,
4A,
51,
B4,
6B,
00,
27,
02,
00,
18,
5D,
00,
01,
00,
B6,
08,
06,
12,
A8,
08,
EA,
00,
B6,
00,
51,
12,
06,
13,
09,
5A,
03,
36,
51,
09,
6C,
36,
01,
6F,
01,
A3,
00,
55,
0C,
AB,
21,
02,
36,
00,
00,
75,
03,
51,
0C,
09,
00,
6D,
00,
A2,
00,
18,
00,
6D,
00,
3F,
13,
E4,
5D,
BE,
00,
54,
06,
06,
A5,
6C,
6F,
1B,
6C,
0C,
09,
05,
5F,
A2,
00,
0A,
5E,
09,
05,
5D,
0C,
09,
03,
07,
06,
36,
14,
D2,
57,
03,
02,
09,
21,
27,
06,
48,
12,
04,
07,
03,
61,
12,
BD,
15,
3C,
00,
36,
1A,
0C,
09,
0C,
27,
36,
3E,
0B,
3F,
56,
02,
AB,
06,
01,
03,
03,
12,
A2,
5D,
64,
03,
08,
00,
36,
3F,
00,
00,
AB,
51,
57,
1C,
A3,
65,
00,
78,
00,
01,
12,
1D,
48,
03,
1B,
0B,
00,
51,
27,
0C,
04,
01,
C9,
52,
00,
5A,
0A,
0A,
00,
5F,
00,
09,
80,
24,
1B,
51,
06,
51,
57,
53,
03,
24,
00,
A5,
A2,
87,
16,
00,
00,
51,
51,
4E,
3C,
00,
BF,
20,
3B,
01,
00,
01,
00,
A3,
C7,
3A,
6C,
3F,
02,
04,
1C,
09,
1C,
52,
33,
24,
48,
2E,
0A,
02,
09,
A2,
02,
36,
4C,
00,
39,
51,
00,
1B,
39,
01,
00,
07,
1B,
00,
A7,
51,
20,
DB,
1F,
A2,
18,
36,
3C,
0A,
00,
56,
15,
87,
10,
09,
1C,
1B,
00,
00,
09,
00,
06,
12,
00,
01,
03,
3E,
06,
00,
02,
A2,
36,
A2,
12,
0D,
00,
07,
00,
36,
12,
66,
A7,
5A,
A3,
01,
51,
3F,
52,
A2,
1B,
16,
A5,
BD,
06,
2B,
01,
5A,
36,
7E,
00,
01,
36,
53,
E5,
18,
24,
15,
21,
02,
7D,
36,
CC,
12,
2A,
A5,
01,
00,
00,
8D,
36,
08,
A2,
12,
12,
00,
36,
A2,
36,
48,
37,
6C,
8F,
01,
CC,
64,
2F,
2F,
09,
03,
1C,
52,
52,
A6,
0A,
67,
00,
02,
53,
12,
72,
0C,
1B,
0B,
1E,
54,
3F,
05,
51,
00,
01,
04,
3F,
39,
D8,
37,
0C,
1B,
21,
65,
02,
29,
1C,
0A,
21,
B4,
00,
43,
A8,
A5,
0C,
03,
57,
78,
A2,
02,
09,
1B,
04,
0D,
3B,
15,
1C,
37,
01,
00,
24,
6D,
03,
A6,
88,
52,
1E,
25,
15,
65,
54,
2C,
B4,
06,
E4,
72,
75,
3D,
57,
D8,
5D,
1B,
0E,
48,
00,
DB,
00,
09,
00,
B1,
A5,
1B,
01,
00,
00,
08,
63,
0B,
70,
5A,
00,
1E,
09,
BF,
0A,
03,
0C,
15,
0F,
00,
36,
00,
02,
0C,
54,
01,
A2,
51,
10,
0A,
00,
01,
0F,
A2,
03,
01,
28,
38,
5D,
BD,
09,
01,
00,
1E,
30,
09,
00,
00,
C3,
49,
A4,
0A,
21,
5D,
36,
3A,
00,
1B,
00,
03,
A2,
08,
09,
51,
A2,
A9,
1B,
00,
36,
06,
AE,
A3,
2D,
63,
00,
00,
0A,
03,
0E,
6C,
A8,
91,
0F,
00,
60,
00,
12,
6E,
03,
12,
01,
6E,
1F,
00,
09,
02,
2E,
A2,
6C,
51,
1E,
02,
54,
64,
A2,
00,
1B,
00,
01,
A4,
1E,
1F,
06,
A2,
AF,
00,
5D,
C4,
53,
00,
64,
00,
00,
B6,
20,
00,
A5,
10,
1F,
51,
00,
87,
C0,
63,
01,
05,
53,
42,
00,
00,
01,
12,
6C,
0A,
0B,
42,
00,
87,
45,
09,
D5,
18,
06,
3E,
87,
0C,
05,
57,
97,
3A,
A5,
4E,
99,
54,
A4,
01,
A2,
18,
00,
00,
01,
1E,
A2,
B1,
04,
30,
1B,
39,
52,
00,
A8,
3F,
00,
39,
00,
4E,
03,
0E,
6E,
00,
01,
09,
00,
09,
05,
A5,
39,
55,
11,
A2,
00,
1B,
02,
88,
00,
67,
1E,
1B,
09,
01,
20,
00,
01,
A2,
00,
04,
A2,
5A,
00,
51,
00,
04,
8D,
70,
00,
2D,
52,
07,
03,
58,
57,
0A,
0A,
01,
00,
36,
53,
A3,
8A,
12,
52,
01,
5D,
6C,
A2,
60,
38,
00,
5A,
00,
00,
06,
C6,
1B,
A2,
60,
00,
07,
A2,
BF,
52,
04,
09,
00,
0C,
73,
70,
1F,
0C,
09,
1E,
51,
51,
51,
51,
00,
55,
09,
54,
09,
6D,
1B,
01,
00,
00,
5B,
0C,
09,
52,
66,
37,
EA,
0B,
6D,
24,
59,
A2,
1D,
75,
37,
8A,
6C,
02,
6C,
24,
1C,
51,
6F,
1C,
03,
04,
2A,
09,
0D,
06,
90,
00,
00,
1E,
08,
5A,
6C,
09,
7C,
12,
12,
08,
0A,
0C,
BE,
A5,
50,
11,
09,
01,
78,
1E,
9D,
51,
0C,
24,
3F,
6F,
03,
76,
1B,
5B,
DE,
72,
6D,
1C,
26,
03,
F2,
00,
00,
A5,
00,
02,
12,
54,
52,
00,
15,
4A,
06,
03,
00,
70,
A4,
57,
27,
1E,
1C,
A8,
3C,
24,
70,
12,
1B,
A4,
08,
0D,
1B,
00,
00,
37,
7B,
6C,
51,
51,
0C,
1C,
03,
01,
09,
1C,
5E,
C9,
89,
03,
57,
1C,
1C,
01,
02,
2E,
00,
43,
03,
03,
52,
6D,
00,
0A,
6C,
01,
01,
6C,
00,
03,
03,
5D,
6C,
04,
00,
00,
0D,
5D,
09,
0A,
6F,
27,
1E,
1B,
00,
5D,
6D,
1C,
0C,
01,
75,
09,
52,
0C,
52,
00,
02,
00,
0A,
51,
52,
00,
1B,
00,
90,
04,
09,
1B,
00,
06,
5A,
01,
A3,
1C,
4E,
D8,
01,
09,
09,
00,
36,
00,
00,
01,
D8,
2D,
4B,
06,
03,
1A,
36,
03,
1C,
51,
03,
00,
59,
1E,
51,
1B,
21,
51,
5A,
52,
51,
6C,
87,
00,
01,
04,
55,
03,
00,
A6,
02,
09,
1B,
00,
00,
00,
1C,
09,
09,
1B,
5D,
09,
26,
1C,
24,
1B,
54,
51,
52,
1B,
51,
1F,
1F,
01,
25,
36,
75,
76,
36,
51,
03,
1B,
00,
00,
63,
00,
1E,
A3,
A2,
B4,
2D,
00,
8A,
36,
00,
01,
03,
6C,
0D,
36,
03,
03,
1B,
03,
03,
6C,
0D,
00,
00,
0C,
00,
2D,
00,
6F,
0C,
51,
52,
04,
54,
A2,
5D,
51,
39,
1E,
A8,
09,
03,
AB,
0C,
05,
03,
1B,
0A,
45,
63,
EF,
02,
6D,
6F,
12,
60,
48,
01,
B5,
06,
A2,
5A,
A2,
03,
B4,
06,
51,
0C,
0B,
00,
A2,
1C,
57,
07,
24,
40,
87,
87,
1B,
51,
54,
0C,
00,
00,
30,
00,
12,
A5,
19,
17,
00,
6C,
02,
B7,
06,
53,
21,
0F,
03,
00,
00,
56,
60,
DF,
51,
03,
51,
75,
06,
0A,
1B,
B7,
6D,
51,
80,
01,
01,
02,
03,
12,
CF,
38,
84,
00,
51,
63,
2D,
01,
02,
A2,
03,
3C,
36,
00,
15,
6C,
A5,
59,
07,
53,
C1,
87,
14,
87,
87,
5D,
09,
00,
1B,
00,
71,
51,
49,
06,
41,
51,
60,
1B,
09,
80,
72,
A4,
06,
5D,
A4,
A2,
12,
A2,
04,
0C,
39,
00,
5B,
03,
2F,
06,
A8,
00,
38,
12,
00,
6C,
09,
06,
0D,
06,
A7,
2A,
00,
00,
51,
C6,
15,
51,
00,
A2,
16,
5C,
BD,
32,
02,
52,
15,
06,
57,
0A,
6D,
21,
57,
1C,
01,
10,
54,
00,
58,
0F,
C0,
20,
BA,
1B,
1E,
48,
88,
B7,
2D,
A2,
14,
88,
05,
08,
17,
6C,
90,
57,
0B,
0D,
00,
A5,
36,
03,
3C,
00,
48,
5A,
11,
15,
1B,
06,
36,
53,
00,
03,
A3,
00,
03,
0B,
04,
1E,
05,
09,
1B,
1B,
1C,
27,
12,
A2,
01,
03,
6D,
E1,
A5,
4C,
00,
09,
D8,
09,
E7,
BF,
01,
12,
66,
01,
09,
87,
BE,
00,
18,
13,
06,
09,
2E,
04,
6B,
BD,
1C,
2D,
33,
09,
21,
3C,
3C,
2D,
A8,
35,
02,
A2,
6C,
02,
00,
09,
0A,
A9,
02,
06,
75,
2D,
00,
06,
22,
09,
00,
41,
1D,
01,
B2,
55,
09,
6F,
27,
03,
02,
55,
0B,
29,
57,
02,
60,
0A,
24,
52,
72,
6C,
00,
0C,
00,
09,
1B,
53,
0D,
00,
00,
51,
75,
03,
2D,
1F,
00,
51,
5B,
00,
54,
B5,
A5,
5E,
01,
24,
09,
51,
00,
51,
1E,
76,
6C,
01,
00,
01,
01,
25,
00,
0A,
51,
1B,
5A,
54,
09,
28,
0C,
00,
24,
51,
04,
6C,
00,
00,
28,
01,
1B,
00,
03,
5E,
A2,
0B,
00,
0D,
52,
CA,
0F,
02,
1B,
54,
01,
D9,
3E,
63,
03,
73,
42,
00,
F0,
00,
58,
25,
01,
D8,
50,
03,
00,
1B,
36,
4A,
6E,
1C,
04,
00,
DA,
08,
52,
51,
01,
48,
3E,
57,
1B,
00,
03,
0C,
B4,
04,
1B,
12,
6D,
D8,
1A,
01,
0C,
24,
1E,
12,
27,
09,
00,
5B,
52,
78,
15,
6C,
0A,
55,
04,
0A,
76,
1E,
52,
52,
0D,
51,
01,
00,
27,
1C,
52,
01,
00,
24,
00,
1E,
1E,
04,
1D,
00,
54,
1C,
1C,
51,
A2,
0A,
1D,
00,
0A,
00,
75,
24,
53,
1B,
27,
5A,
36,
2B,
0A,
05,
09,
03,
03,
A5,
BC,
15,
53,
1B,
1B,
03,
6D,
00,
6C,
00,
BA,
75,
AB,
0A,
2D,
00,
04,
15,
BA,
00,
52,
C6,
54,
00,
00,
37,
03,
0C,
00,
54,
09,
00,
B4,
06,
23,
02,
55,
7B,
01,
26,
25,
01,
A2,
1B,
3C,
09,
00,
60,
51,
15,
0A,
8A,
1B,
DC,
A3,
00,
01,
15,
00,
48,
03,
0C,
53,
00,
51,
90,
00,
09,
36,
00,
04,
01,
78,
0A,
04,
6E,
21,
01,
22,
25,
02,
BB,
A2,
00,
51,
A2,
51,
05,
01,
06,
1B,
00,
36,
5C,
0B,
56,
00,
03,
00,
00,
09,
24,
1C,
00,
01,
04,
1C,
66,
61,
00,
B4,
15,
DA,
00,
A4,
0B,
00,
03,
00,
51,
6F,
55,
52,
03,
12,
00,
13,
60,
A2,
37,
1E,
0D,
A6,
57,
A5,
24,
87,
0B,
01,
A5,
1E,
01,
51,
5A,
03,
75,
38,
6C,
00,
BE,
6D,
25,
1B,
03,
02,
00,
36,
A3,
22,
3D,
38,
77,
6C,
24,
13,
03,
01,
A7,
03,
09,
18,
53,
5A,
A2,
51,
39,
6C,
75,
51,
A6,
51,
37,
1E,
00,
0A,
5E,
C0,
A4,
A2,
B4,
02,
09,
51,
00,
39,
19,
1D,
D9,
73,
73,
02,
00,
1C,
24,
36,
A5,
2F,
1B,
06,
6C,
07,
13,
00,
3F,
57,
6E,
54,
08,
1C,
1B,
54,
01,
87,
54,
53,
00,
A2,
3F,
18,
00,
09,
5A,
AC,
00,
00,
00,
90,
55,
01,
48,
0A,
57,
1B,
03,
0F,
5C,
51,
39,
0B,
4A,
09,
15,
6C,
0E,
01,
07,
3A,
A2,
04,
54,
03,
8B,
13,
D2,
01,
25,
D8,
36,
51,
49,
3C,
01,
01,
1B,
09,
38,
00,
00,
01,
51,
39,
BD,
5A,
0D,
37,
12,
24,
51,
06,
00,
26,
06,
C6,
A2,
1B,
00,
1B,
09,
01,
8D,
1B,
06,
6C,
AA,
54,
02,
0E,
09,
52,
51,
03,
52,
06,
09,
05,
08,
29,
00,
16,
13,
01,
00,
56,
52,
00,
01,
22,
32,
39,
51,
1B,
1B,
0D,
00,
1B,
A2,
03,
D7,
A8,
54,
04,
60,
63,
7E,
00,
1B,
4C,
1B,
00,
01,
04,
51,
00,
A5,
4A,
24,
A2,
5A,
0C,
BD,
69,
1B,
19,
C0,
87,
51,
00,
07,
55,
A2,
1F,
03,
52,
1B,
0B,
5D,
88,
42,
B4,
09,
03,
B2,
1E,
0A,
3F,
1B,
BE,
5A,
03,
74,
2D,
1C,
51,
00,
01,
3C,
0D,
00,
06,
0A,
A2,
52,
21,
15,
6C,
14,
0D,
A2,
10,
08,
12,
00,
04,
12,
15,
AB,
05,
63,
08,
36,
52,
03,
1B,
01,
51,
39,
58,
09,
A6,
36,
53,
02,
51,
0A,
21,
00,
83,
00,
BD,
54,
90,
1B,
A3,
03,
01,
AB,
02,
12,
06,
01,
52,
6F,
00,
12,
06,
81,
5B,
09,
1C,
03,
03,
3F,
1B,
AE,
53,
1C,
1D,
00,
8C,
42,
81,
C7,
00,
2D,
56,
AE,
09,
51,
03,
06,
DE,
05,
12,
10,
13,
BA,
A5,
0A,
02,
88,
27,
00,
9F,
1C,
0F,
06,
49,
BD,
05,
A5,
09,
0F,
01,
24,
09,
A2,
53,
3F,
AC,
24,
09,
03,
87,
B4,
06,
87,
02,
BD,
56,
87,
0C,
00,
87,
1B,
1C,
15,
06,
0B,
24,
6C,
72,
1B,
06,
08,
03,
06,
06,
BE,
51,
36,
13,
6C,
1B,
51,
B4,
01,
09,
24,
51,
52,
55,
BB,
09,
1D,
A5,
54,
0F,
A2,
D9,
00,
00,
1B,
A7,
00,
36,
02,
13,
63,
3F,
1E,
28,
14,
09,
0C,
36,
3D,
8D,
A4,
2D,
3F,
53,
01,
09,
5D,
20,
00,
A2,
BD,
0A,
06,
09,
05,
A2,
51,
01,
09,
0A,
00,
64,
01,
02,
1B,
00,
1C,
3F,
06,
02,
00,
39,
01,
1E,
3C,
66,
01,
00,
00,
00,
00,
00,
48,
09,
00,
51,
89,
00,
4A,
00,
6F,
51,
2D,
89,
12,
01,
1D,
00,
AE,
01,
02,
12,
A8,
3F,
00,
DB,
A7,
51,
00,
15,
5B,
71,
51,
A5,
03,
A5,
07,
00,
09,
B5,
01,
09,
15,
06,
5D,
00,
03,
51,
D8,
00,
00,
3F,
03,
A6,
03,
00,
00,
00,
37,
A5,
0C,
A2,
0A,
3F,
BD,
6E,
39,
51,
09,
60,
87,
00,
6C,
69,
49,
06,
03,
00,
1C,
05,
24,
6C,
02,
36,
03,
03,
53,
3A,
00,
14,
51,
03,
03,
03,
01,
E6,
00,
13,
24,
A9,
36,
00,
69,
87,
52,
06,
1C,
00,
3A,
38,
A9,
00,
1B,
D8,
53,
06,
15,
54,
03,
54,
48,
23,
59,
2C,
5B,
02,
72,
0D,
21,
57,
A8,
E1,
53,
1B,
00,
59,
03,
01,
6F,
0A,
52,
55,
1D,
09,
66,
09,
00,
0C,
37,
15,
51,
00,
36,
06,
1B,
09,
01,
24,
00,
1B,
3B,
78,
56,
00,
18,
01,
51,
A5,
03,
00,
12,
06,
00,
09,
1E,
06,
36,
30,
6C,
2E,
06,
1B,
A4,
76,
87,
09,
D8,
03,
5D,
1D,
5B,
07,
3F,
AB,
6D,
00,
54,
00,
00,
36,
51,
51,
04,
15,
A4,
00,
00,
00,
A2,
36,
30,
06,
88,
12,
1B,
1E,
57,
00,
00,
00,
4B,
12,
6F,
87,
1E,
00,
A4,
6C,
51,
A7,
09,
51,
C7,
51,
24,
24,
21,
2D,
04,
05,
00,
63,
A2,
B4,
09,
51,
00,
0F,
54,
BC,
39,
08,
D0,
0F,
38,
8B,
51,
0A,
09,
53,
1D,
00,
57,
0C,
C3,
A5,
27,
1B,
51,
51,
00,
5B,
03,
36,
1D,
32,
36,
A5,
44,
36,
0C,
51,
67,
1D,
51,
00,
53,
00,
51,
0A,
9F,
75,
18,
37,
E3,
C2,
67,
04,
75,
B4,
72,
06,
21,
03,
1C,
00,
A3,
8B,
1B,
18,
00,
28,
27,
15,
37,
6C,
01,
66,
6C,
54,
31,
1E,
1E,
09,
01,
30,
75,
6C,
51,
01,
0A,
00,
5A,
52,
5D,
00,
52,
00,
0D,
AB,
5A,
00,
09,
00,
15,
1A,
02,
1F,
1B,
52,
53,
A2,
66,
1B,
06,
57,
00,
A2,
42,
0A,
12,
09,
00,
59,
09,
40,
1B,
07,
0C,
02,
01,
00,
AB,
51,
18,
09,
72,
51,
01,
03,
51,
2A,
1B,
51,
75,
04,
6C,
55,
09,
03,
52,
64,
00,
0A,
75,
87,
04,
00,
01,
36,
1B,
52,
1B,
00,
52,
51,
04,
BE,
09,
00,
BD,
DA,
00,
00,
12,
24,
A8,
BA,
AB,
17,
6C,
00,
03,
1A,
B5,
06,
01,
51,
AA,
0B,
02,
0C,
1E,
05,
EC,
A2,
00,
09,
00,
1C,
3C,
DE,
66,
28,
1F,
3A,
51,
1D,
75,
04,
1B,
5B,
51,
54,
51,
00,
0C,
1E,
0D,
03,
0D,
00,
1F,
27,
24,
01,
01,
6C,
75,
09,
75,
A6,
18,
07,
14,
97,
01,
09,
1D,
02,
09,
E9,
7E,
1B,
03,
00,
6F,
00,
0F,
1B,
51,
04,
24,
07,
02,
A2,
09,
19,
05,
59,
18,
0A,
14,
38,
51,
02,
00,
00,
02,
5B,
D9,
07,
63,
2D,
36,
00,
09,
51,
07,
1B,
89,
1B,
24,
38,
27,
35,
B0,
01,
03,
03,
06,
1B,
17,
6C,
32,
09,
36,
BD,
51,
21,
54,
1F,
02,
2A,
23,
A4,
51,
63,
1B,
00,
3D,
31,
51,
B4,
0C,
59,
6C,
3C,
1C,
09,
56,
01,
54,
63,
01,
00,
02,
4C,
39,
B4,
42,
00,
36,
B5,
15,
52,
5B,
13,
12,
1B,
69,
12,
00,
40,
B4,
00,
36,
B4,
53,
A5,
03,
A2,
2A,
51,
03,
31,
12,
0B,
06,
51,
03,
52,
06,
52,
0D,
56,
32,
54,
51,
60,
CF,
54,
BC,
1C,
00,
29,
00,
51,
6C,
1B,
24,
51,
23,
05,
D1,
00,
B5,
12,
01,
00,
09,
1D,
53,
02,
06,
02,
09,
03,
A2,
3E,
60,
02,
AC,
DB,
5B,
04,
0B,
D8,
17,
00,
09,
65,
0D,
8A,
10,
51,
1E,
6E,
5B,
12,
1D,
A2,
1E,
03,
37,
09,
AD,
6C,
A2,
52,
00,
77,
12,
00,
14,
00,
24,
1C,
39,
51,
09,
1B,
36,
1D,
0A,
BD,
36,
51,
02,
27,
23,
51,
1B,
4B,
01,
AB,
00,
01,
1E,
09,
8A,
36,
01,
04,
00,
51,
5A,
1E,
1B,
51,
37,
00,
51,
18,
36,
01,
03,
01,
03,
A2,
7E,
06,
00,
5A,
A2,
03,
BD,
05,
51,
00,
A2,
03,
42,
12,
2E,
01,
2D,
D8,
BF,
00,
00,
52,
A2,
A4,
A4,
5F,
99,
2B,
00,
39,
5D,
21,
C0,
00,
12,
1C,
27,
49,
0B,
12,
CC,
51,
13,
00,
0B,
57,
00,
99,
18,
F1,
8A,
00,
36,
36,
1E,
54,
00,
55,
15,
51,
D8,
36,
CD,
09,
90,
02,
1E,
00,
1B,
0C,
00,
6C,
0C,
09,
7A,
1C,
03,
1B,
1C,
03,
03,
54,
51,
6C,
52,
1E,
57,
1C,
01,
54,
63,
1C,
A6,
51,
AB,
12,
3D,
24,
77,
51,
A2,
14,
00,
1C,
24,
26,
02,
16,
AB,
27,
09,
06,
36,
00,
5D,
5A,
0C,
A8,
BD,
1A,
6D,
01,
36,
53,
00,
2D,
6C,
5D,
38,
5C,
36,
03,
54,
0A,
24,
24,
00,
51,
55,
54,
5A,
01,
B1,
52,
01,
03,
5D,
63,
28,
BD,
00,
25,
1B,
1B,
00,
27,
00,
03,
51,
52,
1B,
54,
0A,
0E,
05,
01,
00,
00,
09,
1D,
1B,
75,
09,
04,
DF,
24,
1E,
3F,
00,
00,
1B,
51,
03,
00,
06,
08,
1E,
04,
27,
06,
47,
63,
51,
5A,
03,
C3,
24,
00,
5B,
01,
09,
5B,
0D,
51,
0D,
0D,
00,
03,
1E,
2B,
00,
5A,
09,
03,
5B,
54,
1E,
5E,
5A,
1C,
0C,
01,
63,
09,
21,
D6,
8D,
03,
6D,
03,
03,
57,
39,
87,
1F,
6C,
6C,
00,
00,
5E,
00,
0C,
03,
00,
6C,
1B,
A2,
5F,
7F,
5A,
02,
1B,
22,
00,
12,
00,
57,
A8,
1E,
64,
0A,
00,
09,
00,
04,
2E,
24,
57,
1D,
B4,
00,
6C,
07,
00,
00,
56,
3B,
13,
63,
5A,
89,
0B,
51,
52,
6E,
BD,
00,
36,
00,
2D,
A2,
A4,
78,
AB,
07,
1B,
00,
A5,
02,
1C,
10,
A3,
18,
05,
12,
5D,
A3,
1B,
3C,
0A,
14,
93,
1B,
00,
AA,
BF,
1B,
12,
0B,
03,
09,
A2,
03,
51,
27,
06,
6F,
0F,
42,
09,
87,
1E,
51,
02,
1E,
42,
88,
09,
42,
D9,
03,
2D,
2D,
6E,
07,
33,
D8,
D8,
2D,
30,
1F,
09,
36,
A2,
05,
D8,
A2,
00,
00,
1B,
00,
06,
07,
D5,
B0,
09,
54,
41,
0A,
02,
6C,
1E,
02,
03,
5A,
8E,
00,
03,
06,
6F,
45,
00,
3F,
2F,
25,
03,
52,
21,
1D,
06,
A9,
04,
12,
36,
04,
03,
00,
00,
51,
64,
5B,
5E,
00,
28,
51,
1B,
39,
03,
25,
12,
09,
1E,
24,
1B,
1F,
00,
01,
55,
00,
01,
A2,
12,
BE,
09,
09,
1B,
00,
A4,
CC,
51,
51,
0C,
E7,
1C,
52,
00,
36,
A2,
5A,
00,
C0,
51,
00,
38,
02,
51,
51,
00,
A5,
01,
00,
00,
00,
54,
51,
09,
07,
03,
53,
36,
00,
1E,
00,
67,
00,
2D,
2D,
55,
1B,
5B,
00,
7E,
60,
5A,
88,
00,
18,
00,
30,
A4,
B4,
08,
01,
12,
1B,
A4,
40,
02,
2F,
00,
01,
01,
52,
3C,
00,
54,
07,
52,
01,
51,
2D,
01,
02,
1C,
38,
02,
03,
A2,
04,
B4,
E3,
00,
36,
02,
51,
23,
13,
00,
00,
00,
00,
02,
36,
45,
05,
3C,
00,
00,
C0,
0C,
3D,
0A,
6F,
1C,
1B,
3C,
52,
00,
D9,
37,
03,
03,
51,
BE,
51,
51,
AB,
B4,
1F,
1C,
06,
36,
0F,
87,
7F,
0C,
15,
39,
03,
27,
1E,
75,
52,
5D,
03,
00,
27,
09,
A8,
03,
58,
12,
24,
AE,
C0,
21,
09,
2D,
CF,
1B,
0A,
00,
02,
DB,
15,
22,
50,
09,
23,
0C,
87,
01,
51,
58,
00,
48,
00,
24,
3F,
63,
F0,
07,
51,
00,
03,
3C,
27,
15,
39,
24,
00,
5D,
A2,
BD,
3A,
B4,
17,
39,
1B,
6C,
01,
1F,
01,
21,
00,
BD,
1B,
1B,
05,
0F,
15,
75,
63,
11,
02,
21,
1B,
12,
00,
3C,
51,
51,
00,
09,
A8,
3F,
03,
29,
01,
C1,
1B,
15,
00,
55,
03,
06,
3C,
25,
5A,
A4,
06,
99,
5E,
52,
7E,
51,
2D,
03,
13,
5D,
2E,
A5,
4D,
41,
A2,
2D,
00,
16,
D8,
00,
14,
09,
21,
A2,
03,
00,
CF,
1F,
3C,
1C,
34,
00,
3F,
00,
89,
5C,
1E,
1B,
00,
1D,
6D,
75,
09,
5D,
B4,
0F,
36,
00,
24,
42,
3B,
07,
45,
3F,
36,
1C,
0F,
51,
4E,
8B,
2E,
52,
AB,
24,
02,
D9,
05,
00,
02,
A2,
00,
1E,
5A,
36,
06,
87,
01,
87,
06,
36,
57,
8B,
1D,
00,
04,
24,
54,
1B,
11,
04,
52,
8F,
06,
1C,
5D,
09,
75,
27,
00,
0C,
01,
A4,
1B,
1C,
A5,
3F,
01,
36,
38,
12,
09,
00,
51,
00,
02,
14,
DA,
48,
18,
4A,
C0,
03,
77,
DB,
54,
A2,
01,
A2,
21,
C6,
B4,
38,
51,
87,
E8,
02,
4E,
00,
1D,
06,
0B,
00,
13,
02,
51,
87,
0A,
5B,
00,
C9,
02,
DE,
00,
39,
00,
0E,
06,
3C,
0A,
02,
3C,
64,
51,
01,
0C,
03,
09,
B4,
06,
37,
01,
DD,
0F,
89,
00,
C0,
06,
00,
09,
A2,
0A,
03,
40,
1B,
01,
49,
21,
04,
AE,
51,
2F,
AF,
04,
00,
00,
6F,
1B,
36,
05,
51,
09,
12,
51,
11,
73,
02,
6C,
13,
01,
3A,
8B,
0D,
01,
03,
B4,
49,
65,
03,
69,
09,
45,
A2,
51,
00,
B2,
00,
09,
24,
52,
51,
52,
02,
00,
0C,
1E,
06,
06,
3F,
24,
A8,
00,
09,
12,
09,
00,
06,
01,
1D,
12,
1B,
03,
20,
03,
01,
18,
06,
0F,
BD,
A2,
51,
08,
3D,
A2,
1C,
B7,
6B,
39,
07,
C0,
1B,
1B,
1B,
90,
36,
01,
00,
00,
03,
1C,
07,
09,
00,
0A,
BF,
06,
27,
1B,
00,
1B,
36,
87,
12,
0A,
02,
75,
01,
07,
A3,
09,
15,
65,
06,
58,
1D,
02,
0F,
03,
00,
00,
00,
21,
1C,
48,
A2,
00,
06,
60,
1B,
09,
1C,
12,
A3,
01,
1E,
4E,
03,
00,
39,
24,
1A,
B6,
63,
25,
51,
0F,
53,
1C,
03,
24,
00,
1B,
5A,
D3,
37,
37,
37,
6C,
81,
01,
D1,
76,
02,
21,
71,
75,
01,
1B,
5A,
01,
00,
1B,
12,
00,
1D,
24,
5E,
00,
08,
01,
59,
05,
00,
51,
2D,
00,
1E,
73,
06,
09,
A2,
00,
11,
00,
0F,
09,
03,
12,
52,
03,
BD,
05,
04,
1E,
00,
21,
42,
24,
06,
09,
00,
51,
D5,
0D,
06,
1E,
6D,
0C,
12,
54,
03,
01,
8F,
CF,
5D,
57,
00,
5D,
00,
02,
CA,
53,
00,
5D,
88,
AC,
A2,
52,
40,
00,
A2,
BD,
0F,
03,
00,
00,
01,
51,
03,
52,
A2,
52,
75,
00,
C7,
30,
00,
00,
04,
51,
A9,
00,
00,
51,
09,
3F,
2D,
06,
88,
0A,
A3,
EC,
90,
60,
25,
12,
00,
00,
00,
87,
1B,
54,
13,
02,
1B,
23,
54,
51,
39,
03,
BD,
00,
39,
5D,
52,
12,
A6,
01,
24,
A5,
00,
3F,
09,
51,
1D,
BE,
12,
00,
1B,
36,
03,
1B,
36,
03,
A5,
BD,
3C,
55,
28,
09,
0A,
00,
39,
52,
7E,
00,
00,
54,
AB,
75,
03,
00,
00,
39,
01,
8D,
53,
9F,
5A,
12,
6D,
02,
06,
1B,
1B,
03,
C0,
01,
AE,
81,
58,
00,
2D,
00,
39,
14,
DC,
1E,
1B,
A3,
05,
90,
00,
51,
57,
00,
48,
54,
2A,
5D,
70,
00,
00,
43,
09,
00,
38,
00,
00,
1B,
01,
09,
36,
54,
87,
04,
5A,
00,
00,
12,
57,
1B,
55,
00,
A3,
02,
1D,
1B,
0F,
03,
09,
03,
1B,
8A,
38,
51,
06,
01,
6C,
0A,
3E,
63,
00,
06,
04,
90,
02,
0A,
52,
1E,
09,
6C,
00,
01,
04,
08,
36,
18,
1B,
8C,
09,
1D,
1B,
4E,
1B,
00,
28,
12,
06,
12,
A8,
0C,
00,
03,
23,
51,
A2,
0A,
37,
42,
01,
24,
90,
3F,
06,
0F,
37,
56,
54,
13,
09,
03,
36,
51,
87,
00,
24,
00,
51,
57,
CC,
E6,
03,
58,
08,
72,
A2,
1B,
0A,
5D,
07,
5A,
87,
1E,
AE,
AB,
00,
3D,
00,
0C,
01,
8D,
B5,
00,
54,
5E,
AC,
63,
00,
24,
0C,
00,
49,
01,
35,
1C,
00,
5A,
00,
DB,
00,
12,
70,
00,
6C,
51,
00,
51,
03,
87,
0A,
0C,
A8,
08,
00,
A9,
51,
D9,
4E,
01,
DB,
36,
1B,
F0,
5A,
09,
6B,
74,
F0,
09,
1E,
EB,
7D,
36,
F2,
51,
AB,
50,
0B,
A7,
3C,
0A,
4A,
5C,
90,
DA,
51,
00,
09,
3F,
A5,
F2,
A2,
24,
55,
5E,
D9,
F2,
1A,
6C,
87,
7B,
EA,
F2,
78,
39,
12,
09,
A2,
3E,
5B,
A2,
00,
52,
0A,
59,
D8,
1E,
78,
00,
00,
00,
02,
0B,
04,
00,
00,
36,
3E,
00,
5E,
03,
1C,
6C,
18,
54,
79,
5A,
B4,
02,
3C,
78,
79,
1B,
06,
00,
09,
1E,
0F,
A2,
3D,
08,
00,
D9,
39,
36,
72,
01,
87,
1B,
1F,
1B,
01,
10,
24,
10,
00,
45,
7E,
00,
1B,
48,
00,
51,
54,
1C,
01,
13,
1B,
03,
37,
12,
12,
75,
42,
E0,
00,
00,
52,
09,
04,
64,
1D,
1E,
02,
51,
1E,
1C,
4A,
35,
12,
19,
02,
00,
03,
39,
51,
00,
39,
02,
0F,
6C,
03,
12,
12,
64,
15,
38,
00,
5D,
00,
51,
09,
00,
01,
7E,
0A,
1E,
1C,
54,
02,
D9,
A2,
63,
39,
22,
54,
20,
06,
6D,
09,
01,
75,
A9,
1B,
00,
A2,
AB,
00,
A3,
00,
00,
1D,
01,
A2,
01,
00,
0A,
2A,
48,
37,
2E,
03,
51,
03,
00,
00,
1E,
00,
5D,
B4,
09,
24,
01,
07,
99,
A5,
09,
C0,
51,
AE,
87,
40,
24,
09,
00,
27,
AB,
09,
AE,
06,
02,
01,
A4,
1B,
56,
12,
00,
02,
1E,
04,
13,
5A,
5B,
21,
1C,
51,
00,
09,
54,
03,
A2,
01,
54,
1B,
01,
B4,
06,
57,
1E,
00,
00,
0A,
01,
22,
51,
51,
57,
00,
A3,
01,
00,
6C,
92,
04,
1B,
01,
04,
AC,
00,
BD,
90,
1B,
1D,
B4,
00,
1C,
03,
BD,
09,
D9,
21,
2D,
01,
36,
00,
57,
2D,
57,
00,
53,
00,
48,
09,
40,
09,
03,
36,
08,
00,
00,
51,
1E,
12,
08,
AE,
51,
2E,
51,
1B,
1E,
20,
00,
02,
BE,
51,
1C,
01,
14,
06,
14,
1B,
2F,
A5,
87,
01,
EA,
0A,
0F,
36,
1E,
12,
03,
0A,
AE,
75,
00,
5A,
1E,
01,
12,
1E,
0A,
52,
1E,
09,
5D,
5B,
6C,
5A,
54,
1F,
01,
36,
52,
36,
C4,
A2,
37,
8D,
75,
A3,
5B,
A2,
12,
75,
88,
13,
2D,
D8,
06,
5C,
3B,
1E,
38,
B4,
A2,
02,
09,
0D,
2A,
3F,
0C,
03,
3C,
BD,
00,
06,
1B,
54,
2F,
1C,
2A,
00,
6D,
5A,
2B,
0B,
06,
09,
0F,
12,
51,
53,
54,
04,
12,
A6,
A2,
A2,
7E,
8F,
07,
51,
2E,
3F,
01,
A3,
A2,
51,
01,
A2,
76,
BD,
24,
06,
51,
5D,
06,
5D,
77,
05,
A3,
64,
13,
B4,
5C,
2A,
30,
00,
6E,
54,
1B,
DB,
21,
8A,
4E,
51,
52,
09,
6C,
00,
00,
12,
13,
1B,
01,
3C,
5B,
00,
12,
01,
01,
49,
01,
03,
36,
57,
21,
93,
69,
05,
00,
63,
03,
A2,
90,
48,
0A,
00,
E0,
02,
E3,
06,
1B,
12,
02,
56,
5A,
0A,
12,
53,
0D,
C4,
0E,
55,
1B,
1E,
A8,
24,
0F,
0F,
09,
00,
01,
87,
51,
6D,
5A,
0C,
06,
63,
01,
BD,
39,
00,
00,
6E,
00,
36,
03,
0D,
1C,
1B,
0C,
03,
06,
2F,
12,
5C,
16,
00,
5A,
00,
00,
88,
60,
A2,
02,
3A,
00,
00,
20,
5A,
36,
A6,
A2,
E1,
DA,
75,
02,
09,
81,
6E,
12,
54,
54,
37,
51,
00,
52,
52,
39,
01,
51,
52,
21,
1F,
00,
53,
04,
75,
6D,
09,
13,
09,
00,
06,
A2,
52,
AD,
1B,
02,
36,
51,
00,
87,
2D,
D8,
24,
09,
1B,
6C,
02,
5D,
A3,
27,
B4,
DB,
5A,
52,
D8,
1C,
1E,
00,
16,
DA,
02,
06,
41,
15,
00,
21,
3C,
5B,
AA,
08,
54,
02,
13,
51,
00,
8D,
12,
48,
45,
00,
58,
0A,
63,
1B,
00,
02,
37,
92,
1B,
12,
4A,
A4,
3D,
0C,
D2,
11,
72,
A2,
24,
93,
53,
1B,
02,
2E,
53,
09,
1B,
65,
0F,
01,
1E,
1B,
06,
45,
A2,
AB,
5D,
54,
36,
09,
36,
AB,
0F,
A3,
01,
AE,
B2,
12,
03,
A4,
52,
DE,
15,
75,
02,
01,
01,
03,
01,
D9,
0C,
00,
01,
01,
03,
54,
A3,
00,
51,
1B,
14,
03,
00,
57,
0A,
0F,
36,
63,
00,
63,
12,
79,
AA,
03,
15,
55,
36,
7E,
03,
01,
1B,
5A,
04,
09,
1F,
1B,
5A,
25,
1E,
00,
6C,
01,
5D,
5D,
51,
00,
09,
01,
0C,
51,
03,
01,
02,
03,
54,
00,
49,
1E,
6C,
C6,
1C,
1B,
51,
06,
08,
0A,
54,
01,
00,
23,
18,
28,
00,
04,
B8,
1D,
0D,
93,
03,
1B,
00,
0D,
24,
51,
00,
02,
1E,
02,
5A,
88,
4B,
08,
1B,
1E,
1B,
01,
00,
06,
00,
00,
0A,
51,
00,
26,
0C,
03,
71,
A5,
BD,
01,
53,
56,
01,
2D,
12,
57,
51,
32,
00,
00,
1E,
27,
5A,
00,
30,
04,
1B,
8B,
54,
36,
00,
04,
A2,
09,
21,
2D,
B4,
AB,
53,
51,
5A,
A2,
A4,
1F,
61,
0C,
01,
06,
03,
24,
51,
6D,
07,
05,
5A,
1B,
02,
01,
36,
7E,
75,
1E,
0A,
24,
63,
01,
1F,
5B,
5A,
0A,
03,
87,
06,
27,
5B,
07,
5D,
3A,
1F,
51,
51,
51,
00,
15,
3F,
00,
14,
09,
01,
03,
CC,
02,
53,
90,
00,
03,
B5,
1B,
2A,
66,
A2,
B4,
39,
00,
00,
00,
36,
00,
03,
00,
A3,
A3,
12,
00,
00,
A2,
01,
A3,
09,
B8,
DE,
C0,
1B,
49,
01,
00,
00,
18,
1E,
11,
60,
13,
00,
CF,
87,
64,
2D,
57,
09,
8B,
1B,
03,
37,
00,
54,
06,
09,
01,
AC,
00,
5A,
0D,
09,
1C,
6B,
63,
03,
04,
00,
14,
51,
21,
02,
00,
5A,
1B,
09,
51,
3C,
1B,
51,
00,
0A,
52,
2D,
2C,
0F,
00,
1B,
48,
09,
0B,
E1,
A2,
6F,
51,
00,
A3,
00,
A5,
18,
00,
3B,
03,
1B,
09,
36,
24,
30,
00,
0B,
25,
51,
C0,
59,
53,
81,
1E,
00,
52,
14,
00,
21,
40,
C3,
1B,
D8,
0B,
00,
52,
24,
21,
6C,
09,
00,
09,
09,
0F,
48,
06,
AE,
1C,
36,
A2,
3D,
02,
5F,
5B,
57,
27,
BF,
02,
01,
BA,
5A,
13,
01,
56,
1C,
0A,
8D,
55,
13,
09,
07,
A8,
12,
37,
01,
6E,
52,
BA,
5A,
00,
57,
79,
28,
07,
0F,
09,
79,
5E,
25,
00,
0B,
2D,
1B,
6C,
09,
38,
63,
12,
09,
00,
3F,
1E,
AB,
2F,
55,
07,
18,
01,
3C,
AB,
09,
A2,
00,
B4,
F2,
F2,
02,
51,
12,
F2,
F2,
50,
A2,
00,
D8,
F2,
F2,
BC,
88,
06,
D8,
50,
42,
08,
2D,
1B,
59,
79,
4F,
F0,
3B,
6F,
78,
0A,
B4,
21,
09,
76,
04,
37,
18,
0D,
72,
0D,
03,
04,
25,
01,
25,
A2,
5B,
51,
28,
1F,
52,
A3,
5B,
27,
0D,
5A,
24,
F0,
1B,
5A,
01,
1F,
AC,
18,
1B,
3F,
53,
04,
DB,
08,
00,
AE,
3A,
DA,
EA,
02,
36,
0A,
00,
A2,
DE,
08,
21,
A2,
87,
04,
E4,
09,
00,
04,
07,
51,
00,
6C,
44,
51,
01,
0C,
54,
1C,
51,
00,
04,
42,
56,
00,
06,
48,
27,
8C,
38,
AD,
06,
1B,
CC,
01,
01,
B4,
05,
26,
0C,
09,
00,
1B,
0C,
5A,
1D,
0C,
01,
1D,
1B,
53,
00,
A8,
52,
36,
01,
6D,
B3,
00,
21,
8C,
06,
00,
12,
A5,
57,
24,
01,
20,
00,
2A,
A5,
18,
51,
36,
06,
36,
00,
76,
45,
D2,
0C,
24,
05,
1D,
0F,
02,
03,
1C,
09,
51,
01,
05,
42,
B7,
51,
BD,
00,
08,
5A,
88,
0C,
53,
8D,
36,
00,
36,
BD,
3A,
A2,
27,
2D,
27,
0F,
A4,
B7,
2D,
A2,
0A,
1C,
51,
06,
6F,
39,
1B,
71,
3F,
B4,
3E,
03,
12,
A5,
38,
09,
01,
03,
AB,
72,
00,
AB,
00,
6E,
07,
22,
03,
06,
5E,
54,
01,
03,
18,
0E,
01,
C9,
00,
00,
02,
6A,
5B,
D9,
1E,
48,
39,
09,
01,
0F,
37,
6C,
00,
02,
B4,
04,
00,
00,
00,
1B,
00,
00,
03,
55,
52,
03,
6F,
1B,
09,
5B,
09,
00,
00,
1E,
5A,
5A,
1C,
76,
0A,
1E,
04,
1B,
54,
00,
54,
0C,
01,
1F,
5E,
55,
00,
A2,
71,
75,
5B,
00,
12,
3C,
1C,
78,
54,
36,
D8,
24,
52,
6D,
AE,
14,
06,
04,
51,
1E,
03,
00,
06,
0C,
6F,
AE,
57,
38,
09,
0A,
00,
37,
1A,
6C,
70,
04,
1B,
B7,
6B,
0C,
00,
25,
00,
4E,
6C,
00,
01,
00,
4E,
0C,
0C,
70,
04,
EA,
48,
24,
24,
75,
25,
B6,
6C,
51,
5A,
0A,
57,
55,
01,
24,
54,
01,
1B,
0F,
09,
27,
0A,
00,
36,
52,
1E,
52,
0D,
05,
60,
0D,
1B,
76,
00,
00,
00,
1E,
70,
01,
1A,
02,
1E,
54,
1F,
49,
87,
5A,
1F,
1E,
0C,
36,
51,
09,
01,
6C,
0C,
1E,
5B,
75,
0A,
04,
5D,
52,
09,
5B,
00,
03,
00,
5B,
55,
6D,
01,
00,
75,
1C,
1B,
5A,
01,
25,
12,
03,
6E,
6F,
67,
57,
1E,
11,
A2,
1B,
BD,
05,
19,
00,
AB,
3B,
78,
6E,
CE,
01,
00,
1D,
21,
12,
00,
00,
54,
01,
00,
36,
53,
03,
8B,
D2,
A2,
12,
1B,
06,
09,
03,
A2,
52,
03,
2D,
3E,
2E,
CF,
09,
5B,
06,
06,
6C,
1B,
A3,
AE,
A2,
57,
52,
59,
00,
0B,
05,
D8,
58,
03,
09,
A3,
BD,
B4,
00,
00,
00,
51,
D9,
09,
0C,
09,
00,
36,
39,
00,
52,
78,
A2,
54,
05,
24,
C0,
36,
08,
C4,
51,
76,
51,
03,
24,
36,
6D,
1B,
1B,
01,
4C,
1B,
5D,
00,
13,
01,
36,
00,
DD,
8B,
00,
38,
00,
00,
A5,
2D,
06,
03,
51,
1C,
12,
09,
0B,
78,
51,
20,
0A,
00,
01,
09,
1B,
51,
00,
48,
1B,
54,
0A,
5A,
C1,
AB,
15,
1B,
51,
10,
53,
00,
00,
09,
09,
02,
00,
09,
1D,
1C,
02,
90,
58,
51,
09,
1F,
A4,
02,
09,
02,
52,
09,
03,
00,
00,
06,
09,
1B,
00,
24,
51,
07,
3C,
69,
04,
B7,
60,
04,
64,
51,
75,
A4,
2D,
01,
2D,
09,
AC,
00,
C0,
07,
90,
05,
06,
05,
09,
00,
1E,
56,
0C,
36,
00,
51,
00,
27,
57,
12,
1B,
5A,
6C,
03,
18,
48,
2E,
18,
1B,
00,
00,
B4,
37,
5D,
36,
06,
5A,
51,
04,
72,
36,
03,
24,
02,
09,
01,
A2,
12,
6C,
A2,
12,
53,
01,
E2,
01,
09,
00,
8F,
00,
51,
01,
36,
0B,
87,
00,
09,
2D,
06,
39,
55,
12,
A5,
36,
33,
51,
51,
AB,
6C,
39,
A2,
A5,
00,
00,
12,
57,
1E,
51,
51,
80,
3F,
18,
1F,
24,
00,
00,
06,
42,
88,
3F,
00,
1C,
09,
01,
00,
2A,
BA,
6E,
BE,
09,
39,
01,
54,
24,
4B,
00,
24,
00,
06,
1B,
63,
51,
05,
51,
8A,
39,
A5,
0C,
00,
39,
A2,
08,
09,
09,
03,
A2,
A8,
1B,
51,
00,
1B,
01,
B5,
88,
01,
1E,
03,
A2,
36,
51,
27,
0C,
12,
A2,
51,
5A,
75,
0A,
02,
00,
09,
5D,
78,
24,
04,
2D,
01,
03,
75,
00,
A2,
DA,
6C,
27,
4E,
1F,
00,
00,
87,
D8,
35,
00,
5A,
00,
E0,
F2,
00,
33,
24,
DE,
F2,
08,
48,
06,
24,
F2,
50,
06,
0F,
1B,
EE,
F2,
00,
00,
1E,
8D,
EC,
1D,
00,
01,
79,
D8,
59,
24,
12,
57,
0A,
BE,
01,
03,
07,
6C,
00,
1E,
54,
04,
72,
78,
13,
6C,
0C,
09,
00,
00,
52,
09,
04,
51,
5B,
02,
01,
03,
1B,
0F,
6C,
72,
09,
00,
02,
1F,
04,
09,
00,
A5,
36,
01,
09,
1B,
28,
00,
18,
0F,
15,
03,
03,
45,
00,
00,
53,
04,
03,
A2,
01,
1B,
C7,
01,
1B,
09,
00,
1C,
57,
1B,
09,
1B,
1B,
27,
75,
76,
04,
70,
00,
37,
39,
03,
00,
40,
03,
03,
09,
09,
70,
0C,
13,
01,
99,
00,
70,
01,
A8,
02,
00,
24,
0C,
17,
57,
AB,
01,
1B,
01,
03,
00,
00,
78,
07,
00,
A8,
D8,
01,
6F,
B4,
0C,
06,
24,
51,
1B,
24,
A6,
15,
24,
06,
00,
21,
51,
51,
06,
D8,
06,
1C,
12,
02,
1B,
A3,
03,
51,
E3,
09,
0A,
5B,
36,
07,
0A,
06,
00,
3B,
0B,
51,
00,
00,
51,
0C,
00,
12,
24,
1B,
1E,
A5,
02,
51,
00,
51,
06,
12,
01,
0A,
01,
90,
02,
03,
57,
05,
04,
B1,
09,
52,
27,
51,
93,
3F,
A5,
C0,
12,
12,
09,
63,
0C,
00,
0A,
03,
00,
36,
07,
01,
03,
0A,
7A,
09,
00,
51,
0A,
51,
36,
03,
00,
01,
A2,
38,
02,
0A,
01,
51,
36,
09,
01,
AE,
1B,
21,
63,
BD,
09,
C6,
00,
A4,
08,
39,
07,
6C,
07,
B6,
06,
2E,
0A,
30,
5D,
04,
01,
27,
06,
1D,
2A,
07,
18,
02,
54,
36,
1E,
A4,
03,
52,
AC,
02,
1B,
25,
00,
4C,
01,
1B,
00,
B5,
4E,
29,
28,
A2,
21,
1D,
6C,
70,
C4,
63,
06,
02,
8D,
52,
09,
3F,
03,
C9,
00,
00,
1C,
06,
B6,
02,
09,
23,
04,
00,
38,
04,
00,
A3,
87,
A2,
00,
1F,
0C,
A9,
A3,
51,
0A,
06,
BA,
06,
12,
00,
0C,
A9,
00,
04,
12,
13,
5D,
39,
09,
02,
36,
24,
52,
66,
07,
A8,
51,
51,
09,
39,
BC,
4B,
45,
52,
18,
B6,
00,
0C,
C1,
00,
1B,
D9,
0F,
89,
03,
54,
0F,
00,
AB,
1D,
95,
0B,
6C,
51,
B3,
03,
09,
3E,
54,
12,
00,
04,
00,
6A,
C3,
54,
5B,
1E,
01,
AC,
02,
BD,
36,
A2,
0A,
29,
01,
1D,
37,
51,
00,
5B,
38,
99,
1E,
01,
00,
13,
39,
5B,
08,
12,
5A,
00,
54,
00,
06,
09,
0A,
01,
A3,
00,
1B,
6F,
24,
76,
30,
0C,
06,
6C,
0B,
51,
1B,
01,
08,
5D,
1B,
6C,
5D,
3C,
F0,
00,
87,
51,
04,
3E,
00,
04,
5E,
03,
4C,
00,
1B,
1B,
0D,
09,
09,
51,
14,
A5,
06,
1C,
57,
2E,
02,
48,
03,
BE,
00,
03,
13,
BE,
00,
00,
B6,
24,
01,
E1,
02,
5A,
09,
1B,
BD,
2D,
2D,
1F,
4C,
5A,
0B,
5E,
20,
00,
49,
01,
52,
02,
15,
62,
51,
26,
A5,
A2,
0B,
00,
D8,
7E,
00,
3F,
5B,
A2,
37,
37,
00,
1D,
3F,
56,
00,
50,
29,
00,
1B,
BD,
00,
00,
03,
0F,
39,
48,
01,
1D,
5A,
5A,
5A,
51,
A2,
1B,
52,
77,
41,
63,
6D,
02,
5A,
1E,
A6,
04,
01,
5D,
01,
6C,
AA,
5C,
00,
A3,
00,
00,
06,
03,
01,
42,
15,
00,
51,
51,
00,
00,
08,
02,
06,
37,
57,
01,
00,
04,
31,
52,
2F,
52,
57,
51,
6C,
07,
13,
03,
09,
34,
12,
52,
5D,
00,
00,
08,
75,
07,
A5,
AB,
00,
1B,
21,
B7,
55,
57,
5A,
6F,
29,
02,
3B,
6C,
03,
15,
06,
0A,
36,
AB,
A4,
04,
D8,
04,
BD,
51,
02,
33,
0D,
15,
1F,
00,
51,
00,
0C,
00,
1B,
0C,
1D,
55,
58,
01,
09,
51,
38,
AB,
37,
02,
0C,
01,
51,
DB,
4D,
51,
00,
26,
AE,
0D,
00,
63,
2E,
00,
58,
1D,
77,
01,
69,
C3,
C3,
08,
1B,
12,
52,
4A,
96,
00,
51,
54,
66,
54,
04,
1D,
48,
87,
0F,
00,
5A,
02,
0A,
12,
16,
01,
C0,
A5,
51,
D2,
1B,
01,
57,
13,
1B,
52,
0A,
CF,
51,
00,
4B,
37,
3F,
05,
51,
48,
2D,
75,
01,
8A,
C3,
63,
09,
00,
A2,
09,
21,
0B,
00,
A6,
01,
00,
1D,
36,
06,
1B,
1B,
52,
64,
37,
00,
09,
DB,
5A,
00,
00,
37,
31,
6C,
48,
A2,
D8,
A3,
01,
2A,
00,
12,
10,
00,
01,
37,
01,
3F,
05,
51,
25,
C6,
01,
D1,
39,
37,
A6,
DE,
28,
0C,
C0,
06,
24,
A6,
36,
54,
13,
1F,
39,
11,
3D,
00,
B5,
10,
23,
00,
21,
01,
1E,
52,
0E,
03,
C8,
00,
6C,
01,
00,
03,
6C,
1B,
51,
3D,
9F,
84,
00,
1B,
1E,
1E,
00,
15,
12,
18,
2E,
00,
0C,
1B,
03,
06,
0C,
BF,
1B,
0D,
01,
02,
01,
A2,
57,
07,
01,
51,
00,
72,
34,
23,
B4,
A5,
A2,
12,
09,
1E,
54,
1C,
09,
52,
1E,
1B,
0A,
1D,
A3,
04,
40,
C9,
24,
08,
36,
0F,
51,
A6,
0A,
12,
24,
B1,
00,
54,
1B,
03,
37,
1B,
39,
A3,
24,
03,
0A,
51,
00,
13,
A4,
AB,
09,
76,
0A,
54,
B1,
54,
1C,
8A,
1B,
36,
00,
08,
02,
79,
03,
51,
1F,
6F,
5B,
1E,
66,
1C,
00,
B0,
51,
51,
57,
0C,
90,
52,
ED,
06,
00,
52,
03,
00,
53,
09,
36,
00,
01,
1E,
36,
09,
55,
56,
63,
A3,
0B,
03,
01,
09,
00,
A2,
12,
1C,
1B,
A5,
A2,
3B,
00,
88,
1B,
00,
01,
1D,
02,
8A,
09,
A3,
03,
00,
39,
51,
12,
00,
00,
39,
63,
01,
21,
00,
40,
0D,
18,
1B,
00,
1B,
24,
48,
44,
06,
0F,
00,
06,
A2,
1B,
24,
A4,
A8,
B6,
5D,
00,
DA,
1C,
00,
02,
24,
4A,
12,
A2,
00,
30,
09,
03,
00,
A2,
A3,
A4,
0A,
04,
01,
00,
13,
0C,
1B,
02,
08,
51,
00,
0B,
39,
51,
09,
53,
36,
21,
1B,
75,
98,
39,
12,
6F,
03,
53,
1B,
05,
03,
6C,
00,
00,
61,
39,
51,
09,
02,
01,
36,
42,
39,
A3,
09,
A2,
30,
C0,
0A,
01,
06,
52,
1E,
00,
1D,
25,
1D,
AB,
03,
2A,
27,
03,
24,
0C,
41,
15,
02,
0C,
A2,
06,
AB,
53,
6D,
1E,
0D,
24,
22,
B4,
5B,
52,
D8,
88,
01,
B1,
00,
00,
09,
1B,
A5,
06,
6D,
01,
AB,
01,
58,
01,
27,
01,
01,
03,
57,
3F,
00,
16,
36,
DC,
09,
B7,
00,
AE,
00,
47,
09,
09,
CC,
36,
AB,
06,
1E,
00,
00,
09,
9A,
51,
36,
C4,
09,
A2,
00,
1B,
00,
04,
0F,
54,
06,
0B,
1E,
51,
00,
50,
2D,
AC,
1B,
0B,
00,
4A,
15,
42,
02,
66,
1B,
B9,
BD,
00,
00,
02,
03,
17,
00,
6F,
00,
00,
0A,
39,
1E,
01,
03,
01,
0E,
01,
5A,
2E,
00,
00,
30,
51,
59,
1E,
48,
51,
24,
6C,
57,
0C,
7C,
00,
88,
6C,
01,
03,
01,
0A,
40,
A9,
06,
00,
2D,
54,
03,
A3,
0C,
51,
03,
1B,
6C,
53,
00,
00,
57,
AB,
D8,
09,
A2,
58,
0D,
39,
1B,
1A,
63,
24,
09,
0A,
4C,
A2,
7C,
00,
12,
36,
37,
6C,
07,
1B,
09,
2A,
04,
00,
00,
90,
00,
0A,
00,
12,
36,
9A,
D8,
00,
0E,
03,
03,
39,
6C,
51,
1B,
80,
00,
D8,
1B,
03,
36,
00,
06,
13,
C3,
25,
09,
06,
BD,
00,
20,
BD,
1E,
1B,
4F,
01,
53,
C0,
01,
BE,
0F,
02,
15,
0C,
1B,
A4,
09,
A2,
6D,
00,
59,
51,
A4,
2D,
CF,
12,
13,
A7,
00,
53,
36,
B5,
1B,
00,
00,
A6,
3E,
09,
BD,
01,
03,
36,
B9,
36,
12,
BF,
1E,
2D,
2E,
14,
00,
84,
AE,
2D,
06,
75,
03,
48,
51,
C7,
1B,
4A,
09,
1B,
10,
22,
39,
00,
78,
00,
B4,
26,
01,
01,
09,
01,
0A,
03,
07,
5A,
03,
04,
01,
02,
01,
0B,
1E,
03,
36,
12,
00,
6F,
00,
51,
03,
00,
5A,
A3,
A2,
5A,
12,
A2,
36,
04,
3F,
0B,
56,
09,
BD,
A3,
00,
00,
6C,
31,
B3,
1F,
06,
53,
2D,
00,
6C,
5C,
09,
02,
6C,
01,
A5,
0C,
39,
D8,
0F,
01,
1B,
6C,
9D,
51,
03,
09,
09,
27,
51,
36,
00,
61,
06,
21,
00,
03,
18,
03,
53,
06,
00,
A4,
08,
03,
37,
72,
C1,
2E,
00,
51,
48,
07,
00,
07,
08,
AC,
63,
21,
16,
BA,
69,
00,
E1,
3E,
0B,
06,
41,
03,
21,
29,
00,
D8,
1C,
5A,
03,
88,
21,
00,
09,
03,
00,
D8,
55,
57,
06,
38,
EA,
6C,
57,
36,
54,
00,
02,
00,
00,
1C,
12,
48,
15,
00,
32,
01,
51,
00,
0A,
30,
0F,
1D,
39,
57,
1B,
41,
09,
06,
1B,
55,
03,
00,
41,
1B,
13,
55,
34,
19,
51,
1B,
63,
12,
A3,
06,
48,
42,
B6,
51,
06,
0F,
36,
AB,
09,
1B,
51,
AB,
51,
CF,
09,
A4,
5A,
1D,
51,
00,
E4,
00,
A5,
06,
6F,
00,
75,
09,
A6,
09,
1C,
00,
00,
B4,
00,
02,
BF,
A2,
03,
48,
5B,
00,
12,
0A,
12,
36,
1B,
57,
02,
89,
36,
AB,
15,
03,
00,
21,
00,
24,
37,
4A,
1B,
37,
20,
1C,
00,
02,
06,
BD,
6F,
A2,
01,
00,
0C,
04,
12,
D8,
A2,
00,
A2,
99,
03,
B4,
12,
AB,
1E,
06,
09,
1B,
02,
1B,
4A,
00,
0F,
00,
00,
51,
51,
05,
06,
06,
78,
7E,
2D,
A2,
00,
01,
37,
1B,
09,
16,
37,
5B,
BF,
03,
1B,
BA,
09,
14,
09,
00,
42,
3F,
00,
03,
12,
00,
8B,
12,
03,
1F,
00,
03,
00,
C1,
BA,
B5,
2D,
37,
01,
51,
00,
A3,
00,
49,
6F,
36,
51,
00,
00,
1B,
36,
03,
06,
2D,
1E,
07,
13,
09,
06,
51,
87,
DB,
52,
02,
52,
1C,
1B,
3F,
6F,
0A,
02,
1B,
00,
02,
00,
5D,
A2,
03,
53,
1B,
02,
0B,
B6,
09,
6C,
03,
00,
09,
54,
E1,
11,
00,
54,
54,
00,
BD,
56,
A2,
00,
09,
24,
A4,
02,
A2,
03,
38,
36,
36,
13,
1B,
06,
0C,
BD,
03,
00,
3C,
65,
1B,
00,
19,
D8,
12,
00,
0D,
00,
1F,
B4,
03,
BD,
39,
03,
2A,
30,
0C,
6E,
A2,
3D,
2D,
A4,
7E,
EB,
03,
1E,
88,
51,
04,
0C,
00,
09,
37,
09,
03,
02,
8D,
36,
36,
07,
16,
04,
0A,
36,
00,
BD,
36,
00,
03,
01,
6C,
5C,
13,
A2,
21,
02,
8A,
BD,
0F,
55,
52,
16,
27,
24,
0A,
A2,
5B,
20,
57,
24,
09,
03,
24,
8E,
01,
6C,
05,
A4,
03,
2D,
0C,
00,
09,
39,
1E,
00,
02,
09,
03,
00,
26,
27,
12,
A6,
03,
12,
6C,
63,
51,
1B,
06,
53,
09,
00,
01,
EE,
00,
51,
0D,
00,
03,
00,
A5,
01,
64,
01,
48,
51,
00,
03,
51,
A2,
01,
03,
00,
1C,
13,
51,
06,
C4,
D8,
00,
00,
3F,
00,
BA,
01,
2B,
C0,
69,
5A,
00,
39,
A2,
A4,
06,
1A,
BF,
34,
12,
00,
18,
03,
A6,
54,
00,
15,
6E,
00,
A3,
37,
09,
A6,
00,
13,
24,
00,
06,
09,
00,
01,
6F,
C4,
00,
6C,
15,
0C,
03,
3E,
00,
04,
88,
68,
0F,
B1,
53,
14,
07,
36,
00,
51,
02,
51,
09,
00,
22,
36,
1C,
01,
12,
10,
0B,
24,
1E,
A2,
63,
3C,
AC,
12,
AB,
1B,
01,
48,
00,
E1,
56,
1B,
00,
03,
1E,
1E,
70,
0A,
1B,
1B,
36,
00,
04,
51,
AC,
00,
A5,
01,
8B,
0A,
1B,
0A,
3F,
01,
05,
36,
00,
52,
48,
5F,
06,
A3,
09,
09,
09,
1B,
12,
00,
35,
87,
6C,
72,
03,
C6,
03,
00,
1B,
00,
14,
48,
06,
28,
60,
24,
00,
1B,
09,
BB,
6E,
76,
40,
76,
C4,
36,
63,
6F,
06,
1C,
09,
36,
09,
13,
0A,
C6,
00,
C6,
00,
1B,
1B,
00,
75,
EA,
00,
0C,
D9,
6C,
C1,
1A,
6C,
00,
36,
00,
C6,
6C,
51,
A2,
1B,
6F,
04,
5A,
01,
00,
06,
75,
04,
06,
51,
13,
50,
79,
DE,
38,
2D,
EA,
6C,
A6,
BC,
21,
EC,
08,
03,
4E,
02,
14,
18,
04,
BB,
3C,
65,
B7,
65,
A5,
36,
A4,
B7,
B4,
00,
00,
12,
66,
39,
1B,
A3,
02,
00,
A2,
3F,
12,
00,
38,
AB,
17,
12,
57,
00,
54,
00,
05,
51,
75,
0D,
5A,
22,
B5,
51,
6D,
C1,
00,
D8,
18,
00,
6F,
A2,
00,
06,
13,
00,
5B,
4D,
18,
00,
93,
38,
6D,
09,
06,
09,
00,
E4,
1B,
00,
A3,
00,
A5,
AB,
14,
00,
48,
2A,
3C,
7F,
36,
03,
54,
1F,
04,
00,
5C,
21,
12,
03,
01,
8D,
02,
09,
01,
01,
04,
E4,
28,
03,
01,
15,
1B,
12,
54,
07,
09,
21,
54,
36,
B4,
00,
53,
36,
63,
21,
12,
CF,
11,
1B,
6C,
24,
09,
00,
00,
12,
37,
0B,
6C,
00,
A7,
00,
63,
01,
01,
00,
00,
2A,
0F,
03,
03,
6C,
01,
02,
06,
12,
09,
02,
00,
00,
04,
3F,
01,
55,
C9,
12,
36,
51,
48,
03,
51,
02,
00,
A8,
4B,
BE,
36,
2D,
A5,
06,
06,
A3,
06,
02,
00,
0A,
18,
A8,
00,
02,
1E,
0B,
07,
AB,
02,
00,
5C,
B4,
0D,
00,
21,
60,
AD,
03,
05,
37,
58,
07,
0A,
A2,
51,
A7,
1B,
37,
51,
00,
09,
1E,
DE,
10,
49,
00,
18,
8A,
24,
03,
00,
1E,
37,
00,
7B,
53,
00,
0A,
00,
75,
00,
22,
1E,
1D,
B4,
00,
38,
BA,
1C,
38,
0D,
56,
92,
36,
00,
78,
09,
51,
49,
08,
0C,
75,
00,
DA,
18,
A2,
51,
28,
51,
4A,
14,
03,
79,
AF,
03,
06,
55,
78,
1F,
00,
49,
51,
52,
36,
08,
03,
53,
AB,
F2,
F2,
36,
A2,
24,
ED,
F2,
1A,
01,
51,
78,
01,
F2,
AA,
02,
01,
AF,
18,
4E,
A7,
1B,
01,
D9,
36,
AA,
36,
02,
09,
EA,
00,
24,
A3,
0B,
D8,
06,
06,
09,
EA,
23,
4E,
06,
00,
1E,
F2,
F2,
1D,
01,
38,
06,
F2,
1A,
03,
1C,
6F,
39,
48,
00,
02,
75,
15,
09,
06,
00,
27,
00,
0C,
70,
51,
6C,
19,
DE,
00,
1E,
51,
36,
51,
2A,
5A,
5A,
99,
A3,
5D,
07,
00,
03,
0A,
00,
76,
1B,
0A,
03,
09,
07,
51,
01,
1B,
A5,
63,
63,
60,
51,
00,
87,
00,
0F,
6F,
2D,
90,
A8,
5D,
06,
00,
07,
14,
01,
03,
B4,
A7,
06,
36,
08,
36,
A2,
36,
A3,
64,
A7,
00,
6C,
0F,
00,
EB,
1D,
21,
38,
01,
00,
13,
03,
00,
01,
AE,
A4,
0C,
63,
A2,
02,
51,
53,
A5,
00,
00,
8D,
12,
AF,
48,
06,
00,
01,
1B,
02,
00,
3E,
00,
5A,
24,
1B,
00,
57,
04,
21,
A3,
0D,
54,
24,
15,
63,
A6,
53,
6F,
02,
1B,
BE,
0F,
03,
0C,
21,
51,
00,
15,
15,
0B,
09,
17,
61,
01,
0C,
63,
0A,
A2,
01,
1B,
02,
1D,
0B,
00,
34,
00,
2D,
12,
A5,
06,
51,
00,
43,
51,
90,
14,
06,
36,
A3,
08,
01,
00,
36,
11,
05,
00,
00,
09,
1D,
1F,
5F,
22,
17,
0A,
B1,
BD,
06,
01,
00,
51,
03,
1B,
00,
51,
36,
37,
D8,
00,
AC,
5A,
21,
09,
90,
1B,
90,
1B,
03,
48,
51,
01,
09,
52,
6F,
5D,
24,
6D,
51,
03,
00,
03,
1C,
00,
01,
5A,
70,
51,
51,
0A,
1B,
5A,
6C,
01,
5A,
52,
0C,
5B,
04,
1E,
0A,
6C,
79,
54,
0A,
03,
09,
0C,
24,
27,
01,
1E,
01,
1D,
51,
1F,
00,
04,
D8,
03,
6C,
24,
C3,
00,
75,
00,
04,
1B,
03,
00,
28,
24,
0D,
51,
C1,
18,
6F,
04,
5D,
5E,
37,
1E,
0C,
54,
5B,
A2,
18,
03,
75,
09,
37,
00,
53,
1C,
1B,
52,
09,
06,
00,
54,
03,
04,
A2,
09,
03,
09,
6D,
6C,
00,
75,
0A,
5E,
54,
AE,
02,
25,
0C,
00,
54,
08,
76,
00,
0A,
6D,
0C,
1E,
03,
09,
1B,
5B,
08,
1B,
1C,
5E,
0A,
A2,
51,
70,
00,
00,
1C,
72,
52,
00,
51,
24,
0D,
09,
5B,
6D,
76,
51,
75,
52,
5A,
00,
0D,
04,
25,
00,
6C,
1C,
6D,
51,
24,
24,
1B,
1C,
39,
09,
00,
09,
90,
B5,
00,
A3,
A2,
AB,
65,
09,
02,
3A,
48,
2A,
00,
0A,
52,
00,
A2,
C6,
02,
09,
5A,
1E,
BD,
02,
0D,
01,
00,
D2,
1E,
14,
51,
58,
00,
20,
51,
01,
1B,
3C,
75,
07,
D9,
21,
1B,
38,
09,
39,
AB,
24,
2F,
03,
01,
51,
1C,
2D,
52,
A5,
A6,
52,
02,
03,
A5,
6E,
09,
53,
A4,
0B,
57,
51,
48,
08,
B5,
0B,
00,
03,
27,
1B,
5D,
72,
1B,
00,
00,
12,
A3,
09,
69,
36,
36,
A2,
21,
6C,
00,
03,
09,
A5,
7E,
03,
DB,
06,
3F,
80,
A2,
A5,
1B,
03,
01,
36,
64,
63,
53,
03,
B4,
36,
2C,
01,
36,
A2,
BD,
00,
2A,
33,
06,
8B,
63,
01,
24,
51,
01,
13,
09,
37,
A4,
05,
A5,
01,
40,
03,
1C,
1B,
B1,
00,
AB,
18,
00,
24,
51,
54,
8F,
0A,
87,
5B,
53,
51,
00,
42,
06,
72,
14,
5A,
5D,
1B,
1E,
75,
07,
C5,
B4,
09,
E0,
63,
12,
1E,
1E,
06,
64,
0D,
00,
3A,
09,
A2,
C1,
51,
00,
49,
3C,
B4,
1D,
09,
04,
9B,
0F,
87,
0A,
30,
48,
06,
D9,
6C,
1B,
39,
10,
AB,
48,
12,
06,
A3,
2D,
1D,
03,
09,
51,
02,
01,
45,
51,
0D,
80,
02,
1A,
0F,
02,
5A,
AE,
00,
A2,
3F,
06,
6C,
02,
63,
A1,
64,
0C,
DB,
12,
A8,
00,
C6,
09,
01,
49,
51,
02,
39,
5A,
0A,
01,
06,
1B,
48,
00,
6D,
AB,
51,
0C,
24,
00,
5A,
2F,
20,
66,
18,
01,
A2,
02,
2D,
03,
00,
A2,
90,
A3,
00,
01,
03,
B1,
16,
01,
0B,
04,
00,
21,
60,
36,
C0,
06,
00,
52,
02,
6C,
0A,
DE,
57,
00,
63,
A4,
09,
63,
37,
01,
66,
05,
AC,
05,
01,
1B,
00,
1B,
02,
6E,
00,
80,
5B,
00,
D8,
36,
52,
1E,
DB,
00,
5D,
63,
AB,
12,
0F,
A4,
00,
49,
3F,
1E,
E7,
BE,
37,
00,
00,
0C,
C3,
69,
0F,
09,
00,
55,
09,
AB,
03,
04,
2D,
1B,
51,
B5,
6F,
21,
57,
0A,
12,
04,
0B,
0C,
38,
C6,
2D,
01,
02,
02,
6C,
06,
02,
1F,
13,
00,
03,
1B,
06,
51,
08,
0C,
12,
60,
09,
03,
C9,
00,
72,
0D,
03,
75,
63,
14,
03,
1E,
0D,
5F,
61,
02,
63,
05,
27,
24,
71,
00,
C6,
3D,
0B,
AB,
09,
00,
4B,
D8,
00,
03,
2D,
D8,
36,
09,
51,
E1,
00,
00,
04,
56,
AB,
54,
0D,
01,
00,
6D,
37,
4E,
00,
00,
BE,
02,
C6,
B4,
5A,
00,
03,
A2,
C0,
27,
00,
B8,
01,
4E,
22,
1B,
00,
AE,
7D,
04,
B3,
1C,
1C,
00,
0F,
01,
00,
43,
21,
1B,
13,
3F,
00,
51,
04,
5A,
15,
BA,
3A,
B5,
1F,
55,
26,
1C,
52,
51,
54,
02,
00,
54,
03,
5D,
51,
37,
63,
09,
1B,
20,
03,
2D,
36,
3F,
1C,
39,
51,
5C,
5B,
A5,
A3,
A2,
90,
09,
36,
36,
38,
03,
A3,
01,
26,
13,
F0,
00,
1E,
0C,
09,
36,
4A,
03,
09,
51,
A5,
00,
0C,
01,
1E,
A2,
12,
87,
A5,
36,
A2,
64,
BE,
00,
00,
1C,
12,
00,
66,
39,
36,
6F,
28,
AB,
00,
06,
90,
00,
5B,
A5,
5B,
25,
54,
0D,
04,
09,
A2,
21,
51,
51,
52,
0A,
03,
03,
00,
D8,
12,
01,
BD,
01,
5A,
3E,
00,
B4,
A2,
55,
12,
36,
BA,
00,
3C,
01,
A8,
36,
21,
1C,
00,
0A,
3C,
03,
AB,
1C,
1B,
03,
1C,
00,
63,
02,
51,
6C,
51,
03,
04,
24,
03,
00,
1B,
51,
0F,
1E,
A4,
66,
57,
15,
1E,
51,
00,
00,
A2,
36,
22,
51,
14,
00,
28,
63,
1C,
7A,
51,
3A,
7C,
C7,
57,
0D,
03,
54,
25,
00,
06,
02,
00,
08,
40,
0C,
B5,
1B,
54,
52,
03,
00,
EA,
08,
29,
24,
00,
EB,
DE,
E0,
54,
03,
00,
51,
27,
A2,
54,
00,
53,
6F,
01,
12,
09,
01,
52,
00,
00,
08,
00,
51,
54,
0D,
B4,
00,
07,
55,
6C,
01,
59,
09,
00,
01,
79,
DC,
1B,
00,
54,
74,
1F,
01,
1E,
1F,
48,
79,
A5,
53,
1C,
A2,
57,
78,
4E,
52,
03,
06,
6C,
01,
08,
00,
06,
A2,
01,
3C,
06,
37,
12,
6C,
48,
B6,
BD,
F0,
36,
00,
DA,
17,
15,
F2,
1A,
02,
1A,
0E,
EA,
F2,
BA,
50,
8F,
05,
F0,
F2,
BA,
A1,
31,
19,
A4,
F0,
F2,
60,
24,
51,
D8,
DE,
02,
B4,
1B,
A6,
EA,
02,
A3,
54,
6F,
04,
1C,
54,
12,
36,
52,
79,
25,
04,
0D,
88,
24,
51,
00,
00,
54,
63,
1B,
42,
09,
8B,
09,
A3,
00,
00,
22,
6F,
01,
51,
5A,
00,
6F,
2A,
5A,
00,
03,
52,
2D,
1E,
A8,
33,
09,
2B,
12,
1C,
92,
87,
0A,
1B,
1D,
00,
6C,
09,
4D,
1B,
1C,
13,
A0,
54,
04,
51,
53,
08,
00,
56,
00,
0C,
09,
BD,
5A,
09,
03,
00,
00,
54,
28,
A2,
03,
37,
24,
1C,
39,
1B,
00,
36,
00,
0C,
09,
00,
0A,
06,
11,
51,
00,
02,
37,
36,
00,
04,
03,
87,
A9,
2D,
25,
A2,
51,
4D,
05,
09,
00,
51,
09,
54,
14,
15,
13,
0A,
6C,
39,
A5,
2F,
46,
48,
02,
A2,
5A,
00,
00,
13,
54,
2D,
09,
6F,
03,
1B,
00,
24,
36,
54,
00,
1F,
A2,
63,
53,
51,
06,
00,
14,
00,
1B,
95,
1E,
36,
1E,
0D,
0A,
0B,
00,
58,
03,
1F,
36,
58,
54,
B5,
03,
0C,
1E,
87,
00,
12,
07,
AE,
00,
00,
6F,
18,
5A,
01,
2D,
5A,
09,
AE,
00,
1C,
12,
1B,
06,
1B,
00,
3F,
36,
12,
06,
1B,
02,
01,
00,
02,
29,
C3,
00,
4E,
1F,
87,
54,
87,
36,
6E,
00,
54,
00,
A5,
AA,
77,
0A,
6C,
51,
4F,
65,
1F,
12,
0B,
09,
38,
1C,
0C,
7E,
15,
18,
1E,
7B,
76,
78,
D8,
69,
DC,
78,
04,
5A,
07,
75,
86,
6C,
1F,
0C,
54,
EB,
02,
1E,
A5,
7E,
76,
F2,
1B,
01,
3C,
1E,
EE,
14,
5B,
09,
6D,
75,
4E,
3A,
09,
A5,
01,
DC,
7D,
A2,
0B,
54,
09,
69,
DC,
B4,
1E,
03,
AF,
0E,
3E,
51,
54,
01,
04,
A8,
02,
51,
1B,
54,
18,
A4,
3B,
03,
75,
24,
A2,
CF,
03,
5A,
75,
01,
48,
51,
01,
00,
EA,
51,
2D,
5A,
00,
B6,
06,
06,
03,
6C,
00,
3B,
1B,
1B,
00,
51,
E4,
12,
00,
3C,
00,
6C,
01,
00,
09,
00,
51,
55,
00,
51,
1C,
6F,
0A,
53,
13,
AB,
0D,
52,
00,
01,
00,
51,
03,
00,
03,
79,
0D,
00,
00,
09,
05,
1F,
04,
09,
00,
A3,
0C,
0D,
00,
32,
C0,
51,
09,
36,
2D,
42,
00,
2A,
36,
42,
06,
01,
12,
A5,
00,
39,
0D,
BE,
08,
38,
25,
54,
09,
03,
F1,
A8,
A5,
58,
0A,
00,
06,
01,
51,
0A,
06,
F2,
AD,
1A,
51,
5A,
B5,
59,
48,
18,
03,
01,
00,
A7,
DA,
26,
09,
0A,
51,
EA,
3C,
24,
7B,
A4,
03,
36,
A1,
09,
09,
6C,
49,
00,
1B,
00,
02,
03,
D8,
31,
5E,
01,
75,
24,
70,
5D,
0E,
42,
09,
76,
79,
24,
5A,
1B,
0C,
1B,
75,
1E,
00,
AB,
12,
0C,
54,
A3,
03,
12,
5A,
70,
00,
51,
00,
00,
1B,
00,
1B,
51,
5B,
09,
00,
6C,
24,
00,
A3,
1B,
54,
1E,
07,
BD,
70,
C9,
1C,
A6,
1C,
00,
38,
12,
14,
B7,
60,
08,
38,
A7,
00,
95,
53,
1B,
5A,
24,
36,
AF,
00,
51,
C6,
06,
A5,
12,
02,
5A,
51,
BD,
8E,
01,
53,
A3,
00,
00,
48,
1C,
38,
03,
BF,
A3,
01,
A5,
A2,
BD,
51,
09,
03,
1D,
54,
5A,
CF,
59,
0C,
63,
12,
1B,
AC,
56,
0C,
00,
A8,
6C,
15,
B5,
72,
06,
54,
06,
F0,
02,
01,
54,
BD,
09,
13,
00,
00,
A2,
51,
1C,
03,
53,
25,
51,
1C,
7E,
05,
2D,
12,
53,
51,
15,
18,
37,
57,
21,
6D,
06,
00,
2D,
1E,
2D,
03,
52,
00,
65,
00,
1E,
A4,
35,
48,
0B,
0D,
A3,
09,
04,
24,
1B,
12,
87,
20,
B1,
A8,
6C,
00,
05,
24,
A5,
38,
1E,
01,
81,
00,
52,
00,
03,
12,
56,
3A,
55,
00,
06,
71,
09,
51,
09,
37,
04,
52,
00,
17,
E1,
1C,
03,
4D,
01,
B5,
21,
A3,
1B,
48,
01,
0B,
00,
5D,
1B,
A7,
1F,
00,
CF,
25,
60,
A3,
00,
00,
01,
12,
07,
00,
A2,
15,
00,
A4,
1B,
BD,
45,
8D,
02,
51,
CA,
24,
00,
2A,
01,
9A,
37,
1C,
6C,
00,
14,
03,
12,
06,
A9,
06,
1E,
95,
13,
09,
57,
36,
89,
12,
2A,
01,
6F,
1B,
03,
09,
6E,
51,
00,
BD,
1B,
02,
6C,
AB,
00,
D8,
0B,
57,
51,
1B,
00,
1C,
00,
65,
21,
1B,
2A,
00,
63,
A7,
D9,
57,
00,
36,
12,
00,
1A,
00,
7B,
00,
02,
A2,
02,
52,
09,
00,
1C,
D8,
02,
51,
0B,
14,
DA,
02,
00,
6E,
B8,
00,
14,
2F,
52,
A2,
DE,
12,
53,
1B,
09,
6C,
02,
02,
A4,
04,
29,
1B,
09,
C8,
00,
40,
01,
6D,
01,
12,
01,
52,
00,
00,
5B,
51,
06,
0B,
29,
0D,
09,
A2,
04,
04,
24,
09,
6F,
51,
52,
78,
27,
55,
55,
1B,
51,
00,
5D,
0C,
1C,
6C,
52,
51,
28,
6D,
51,
09,
5A,
6F,
0A,
5A,
76,
00,
03,
55,
04,
00,
54,
6D,
28,
06,
00,
00,
5B,
27,
09,
25,
24,
00,
54,
41,
A8,
5A,
55,
0C,
5A,
06,
A4,
09,
1B,
55,
54,
A2,
1D,
1F,
6C,
3F,
09,
A3,
52,
55,
5B,
36,
78,
1E,
25,
03,
94,
63,
A2,
54,
1F,
00,
22,
0E,
51,
5B,
24,
51,
36,
D8,
00,
51,
40,
28,
01,
05,
09,
00,
57,
76,
39,
00,
28,
27,
2A,
1C,
52,
1E,
51,
0D,
75,
0D,
2F,
00,
5D,
01,
7B,
A6,
78,
79,
70,
24,
1D,
08,
0D,
25,
0A,
A5,
D8,
5B,
0A,
03,
0C,
3C,
2D,
24,
0A,
01,
6C,
0A,
52,
0C,
00,
1E,
1B,
09,
51,
00,
00,
78,
25,
00,
03,
00,
6D,
24,
28,
00,
52,
02,
0A,
03,
06,
17,
02,
6F,
78,
02,
A4,
61,
47,
1B,
80,
51,
52,
1E,
09,
03,
01,
12,
00,
00,
00,
54,
5D,
00,
00,
51,
36,
30,
1B,
0A,
36,
5A,
03,
6C,
00,
A4,
AB,
54,
24,
1C,
6C,
01,
66,
03,
27,
25,
1C,
52,
0C,
51,
1D,
0C,
40,
2E,
02,
3F,
09,
06,
12,
1B,
13,
00,
12,
36,
A5,
38,
00,
06,
47,
BD,
00,
03,
00,
00,
01,
0C,
04,
A4,
C8,
06,
26,
BD,
87,
3C,
00,
48,
03,
56,
01,
24,
53,
76,
07,
04,
A8,
4E,
AA,
00,
0C,
01,
00,
A8,
24,
09,
00,
02,
00,
1B,
24,
5F,
A2,
36,
27,
1E,
07,
00,
21,
39,
29,
0C,
2F,
36,
06,
06,
0C,
1F,
7E,
03,
AD,
15,
00,
38,
37,
DB,
02,
23,
01,
00,
C2,
AB,
12,
02,
1D,
09,
01,
03,
36,
36,
06,
6D,
00,
01,
A2,
09,
1F,
1C,
52,
0C,
36,
79,
14,
D8,
12,
F0,
1B,
00,
3A,
03,
88,
01,
1B,
63,
75,
66,
00,
5A,
24,
03,
06,
45,
BB,
00,
1E,
36,
52,
57,
1B,
63,
13,
12,
BA,
12,
3C,
AE,
6C,
02,
36,
0F,
00,
52,
23,
14,
57,
BD,
04,
15,
06,
51,
35,
03,
00,
6C,
00,
3C,
00,
53,
16,
36,
51,
0A,
A2,
55,
00,
51,
6E,
6E,
21,
24,
3F,
37,
A2,
02,
00,
06,
D9,
F0,
51,
40,
03,
51,
02,
00,
C0,
6D,
38,
0F,
69,
5B,
00,
03,
01,
26,
00,
36,
88,
01,
12,
97,
07,
69,
63,
B8,
31,
8D,
02,
1B,
55,
1B,
33,
09,
3F,
02,
00,
B4,
08,
7B,
32,
E1,
02,
05,
B3,
E1,
B5,
A2,
49,
02,
59,
01,
2D,
24,
0F,
00,
4B,
1F,
00,
01,
5A,
A5,
00,
5C,
6E,
D8,
A2,
15,
03,
1B,
5A,
C6,
2A,
0A,
88,
00,
BD,
00,
04,
00,
09,
03,
07,
0E,
87,
12,
5A,
36,
12,
01,
09,
88,
12,
09,
06,
36,
08,
00,
02,
13,
02,
51,
00,
1B,
7F,
24,
51,
02,
2A,
49,
00,
BA,
51,
01,
1B,
01,
53,
1B,
01,
00,
36,
2D,
57,
09,
65,
00,
0B,
02,
03,
00,
09,
03,
09,
52,
3F,
1E,
0C,
01,
DE,
02,
66,
01,
53,
09,
00,
00,
89,
58,
18,
36,
C3,
2D,
C0,
7D,
01,
12,
00,
1B,
6C,
1A,
48,
C6,
09,
52,
37,
A2,
A2,
1B,
03,
CF,
1B,
00,
51,
16,
B6,
09,
06,
18,
0C,
03,
02,
04,
AB,
0B,
92,
12,
04,
37,
A5,
03,
00,
D8,
BD,
A2,
07,
A7,
09,
37,
06,
2E,
00,
57,
38,
00,
01,
1B,
66,
1B,
1D,
1D,
04,
00,
0C,
01,
51,
09,
25,
0A,
87,
6C,
71,
C0,
03,
00,
00,
0C,
04,
7B,
24,
3F,
13,
36,
B6,
00,
51,
18,
A3,
A8,
A3,
09,
91,
E4,
51,
09,
09,
12,
24,
00,
01,
00,
BB,
0A,
5B,
00,
09,
5A,
01,
00,
09,
76,
51,
00,
04,
01,
5A,
0E,
63,
1B,
66,
1B,
04,
51,
87,
51,
35,
16,
1B,
53,
EF,
03,
00,
51,
01,
21,
36,
00,
1E,
00,
1B,
04,
48,
12,
01,
06,
04,
B5,
00,
03,
18,
00,
28,
33,
A2,
3C,
01,
21,
5A,
4A,
00,
60,
A5,
09,
01,
08,
09,
1B,
AB,
53,
09,
12,
11,
93,
D8,
27,
00,
48,
03,
09,
06,
03,
57,
A5,
51,
3D,
0D,
36,
36,
51,
13,
6C,
09,
00,
00,
01,
04,
00,
01,
52,
01,
01,
00,
00,
00,
6C,
5D,
09,
1B,
00,
51,
28,
00,
04,
00,
1C,
6C,
00,
37,
02,
21,
01,
04,
0D,
A7,
AB,
09,
00,
89,
06,
02,
51,
5E,
00,
00,
48,
65,
6C,
0F,
07,
51,
A4,
09,
13,
0F,
00,
09,
52,
55,
09,
76,
21,
6F,
38,
03,
00,
02,
2F,
15,
39,
02,
27,
42,
A5,
01,
A2,
53,
00,
13,
24,
52,
1E,
A3,
42,
6B,
9D,
15,
54,
03,
24,
09,
87,
06,
75,
09,
06,
09,
00,
57,
37,
7B,
C0,
0D,
1B,
12,
00,
51,
AC,
1E,
03,
3F,
01,
3A,
05,
12,
00,
02,
03,
00,
00,
36,
38,
01,
2D,
06,
D8,
02,
48,
36,
12,
10,
01,
AA,
3A,
07,
1B,
00,
00,
88,
09,
0E,
30,
A2,
B4,
00,
00,
12,
4C,
51,
A3,
0C,
1B,
01,
06,
55,
A2,
30,
09,
57,
36,
15,
1B,
25,
B1,
01,
01,
03,
57,
54,
00,
3A,
09,
04,
48,
1B,
01,
A3,
03,
B4,
82,
1B,
00,
09,
C9,
1E,
B9,
01,
12,
06,
A4,
5A,
06,
1B,
01,
12,
54,
75,
02,
1D,
5A,
03,
A3,
00,
2D,
0A,
AB,
51,
04,
A3,
1F,
1F,
0B,
1C,
03,
00,
00,
09,
52,
00,
1B,
00,
12,
04,
1B,
0A,
36,
0C,
03,
75,
1B,
25,
39,
00,
1B,
00,
03,
0C,
06,
53,
70,
04,
93,
03,
1B,
6C,
5A,
52,
00,
09,
00,
0C,
5B,
00,
AE,
07,
0C,
6C,
00,
1C,
09,
00,
96,
04,
75,
00,
01,
76,
1E,
24,
01,
54,
09,
A2,
1C,
04,
54,
36,
53,
09,
01,
5A,
1F,
8C,
06,
24,
03,
5D,
04,
06,
5A,
54,
5A,
03,
02,
01,
5A,
51,
00,
00,
00,
5B,
03,
5A,
5B,
13,
1B,
28,
1F,
27,
00,
24,
51,
AB,
00,
03,
C0,
09,
D9,
6F,
1E,
01,
89,
D8,
13,
00,
51,
00,
38,
00,
13,
00,
51,
3F,
02,
1B,
25,
75,
52,
0D,
51,
00,
01,
04,
55,
5D,
A3,
27,
24,
1B,
00,
52,
52,
00,
52,
52,
6C,
1B,
1E,
0C,
1C,
03,
6C,
00,
04,
0F,
00,
1D,
3F,
A3,
1B,
09,
63,
2D,
3F,
01,
0B,
2D,
18,
00,
03,
01,
6C,
36,
0C,
5A,
0B,
E1,
16,
51,
66,
A2,
5B,
00,
3F,
52,
2F,
54,
00,
21,
00,
18,
05,
BE,
00,
03,
C3,
33,
00,
18,
1B,
09,
09,
25,
01,
2D,
3C,
00,
0B,
1B,
C6,
02,
BA,
0B,
06,
56,
A6,
60,
6C,
07,
00,
00,
05,
A3,
1C,
B4,
42,
00,
00,
1B,
03,
36,
07,
1C,
00,
3F,
00,
03,
0C,
A2,
6D,
1B,
01,
03,
00,
BD,
E0,
51,
00,
A3,
B1,
00,
AE,
18,
A4,
00,
03,
1B,
51,
12,
01,
37,
03,
00,
01,
06,
A2,
09,
1E,
04,
82,
11,
03,
02,
2D,
25,
93,
37,
27,
32,
87,
00,
A7,
0C,
0B,
22,
09,
12,
15,
00,
36,
12,
12,
12,
00,
57,
00,
A3,
03,
1C,
51,
A5,
0A,
0A,
C8,
52,
6C,
52,
52,
5A,
1B,
01,
51,
02,
09,
0C,
6F,
00,
03,
1C,
01,
0A,
22,
5C,
14,
00,
6F,
03,
00,
1C,
1B,
52,
0D,
75,
04,
E1,
87,
1B,
3F,
1B,
51,
1B,
05,
27,
12,
2A,
36,
06,
00,
1B,
53,
2D,
1B,
A2,
12,
1C,
1B,
DE,
3C,
1D,
1A,
69,
03,
01,
00,
13,
00,
1E,
02,
39,
3F,
3C,
51,
06,
6F,
51,
12,
6E,
03,
39,
53,
03,
EA,
51,
00,
1C,
51,
00,
65,
5D,
83,
54,
6D,
00,
53,
0F,
51,
6C,
A3,
37,
00,
B4,
1C,
78,
01,
19,
0A,
BD,
00,
1C,
20,
76,
1B,
B4,
27,
00,
10,
00,
36,
90,
0C,
00,
00,
01,
D8,
1D,
07,
5A,
BE,
09,
A2,
5A,
00,
0F,
52,
01,
00,
53,
00,
5A,
09,
03,
00,
BD,
03,
A2,
70,
90,
03,
78,
55,
70,
C6,
00,
60,
0F,
51,
00,
37,
1E,
26,
09,
03,
00,
04,
01,
54,
04,
1B,
07,
1B,
00,
24,
03,
5B,
00,
55,
3C,
A3,
51,
26,
12,
A0,
A5,
00,
00,
00,
09,
09,
52,
5A,
BE,
1B,
5A,
09,
2D,
13,
51,
00,
28,
6C,
E7,
51,
01,
12,
C3,
1C,
01,
75,
52,
0F,
D8,
6F,
0B,
52,
12,
D7,
1B,
CF,
A3,
A8,
02,
A5,
6D,
12,
54,
1C,
36,
48,
24,
23,
0C,
57,
6C,
00,
04,
37,
1D,
A2,
37,
03,
A2,
03,
02,
00,
1B,
CF,
1B,
18,
36,
00,
52,
06,
01,
87,
01,
6C,
27,
09,
5A,
AF,
51,
24,
1B,
87,
51,
0A,
33,
0A,
51,
51,
00,
00,
00,
AB,
12,
00,
87,
51,
00,
03,
00,
51,
00,
A2,
02,
1B,
51,
00,
55,
11,
39,
00,
1E,
07,
6C,
87,
37,
6C,
01,
00,
D5,
55,
12,
02,
A2,
03,
B1,
01,
B8,
BD,
52,
30,
03,
39,
12,
09,
66,
03,
03,
AB,
05,
53,
2D,
A2,
53,
28,
0C,
51,
07,
03,
55,
00,
87,
5A,
28,
63,
76,
06,
1B,
0A,
00,
0A,
3C,
B4,
00,
6D,
6F,
04,
DD,
48,
53,
55,
00,
03,
BA,
53,
6F,
00,
01,
00,
F2,
08,
5E,
54,
03,
D8,
F2,
51,
25,
1F,
07,
EA,
BC,
6C,
00,
12,
00,
50,
BD,
57,
04,
48,
A2,
62,
D8,
53,
01,
53,
ED,
A3,
14,
70,
57,
75,
11,
DE,
6E,
EE,
71,
E5,
27,
3F,
42,
1E,
79,
51,
0D,
00,
09,
6F,
28,
78,
01,
6C,
0C,
0C,
6C,
0D,
03,
03,
52,
3A,
28,
01,
02,
00,
53,
74,
DB,
1A,
00,
09,
4A,
A4,
14,
1B,
03,
F0,
F2,
02,
4A,
1B,
00,
1A,
48,
14,
38,
09,
D8,
12,
3C,
00,
5A,
52,
00,
00,
1E,
A5,
00,
81,
02,
02,
A2,
78,
00,
03,
BA,
EC,
7D,
00,
1F,
03,
D8,
14,
00,
01,
1F,
6C,
00,
41,
00,
5B,
36,
06,
06,
51,
BA,
01,
09,
1E,
00,
36,
24,
00,
06,
00,
00,
00,
51,
12,
24,
00,
00,
1C,
00,
0A,
55,
A2,
36,
00,
36,
3A,
12,
1C,
36,
1E,
07,
48,
01,
00,
C4,
1B,
01,
8D,
0A,
63,
A4,
53,
02,
2D,
0B,
52,
12,
00,
00,
2D,
03,
00,
2A,
03,
87,
2B,
AB,
36,
63,
1E,
76,
51,
02,
6C,
06,
06,
37,
00,
1E,
00,
7E,
1B,
A8,
75,
00,
51,
51,
CF,
48,
CC,
56,
0F,
87,
07,
07,
87,
45,
89,
A8,
00,
03,
B5,
37,
02,
02,
57,
03,
51,
A4,
06,
A4,
36,
12,
22,
AB,
6F,
BD,
0A,
09,
02,
00,
54,
51,
0F,
C0,
37,
BE,
0E,
52,
54,
00,
14,
8D,
15,
00,
BD,
A7,
1B,
51,
1C,
59,
1B,
1B,
6F,
6C,
36,
02,
60,
09,
02,
1E,
5A,
09,
0F,
0F,
90,
00,
A8,
12,
02,
0B,
61,
03,
00,
25,
00,
84,
A3,
8A,
17,
3F,
02,
12,
03,
09,
A2,
06,
00,
00,
06,
27,
36,
00,
3B,
39,
00,
57,
52,
15,
5E,
01,
A5,
02,
A3,
36,
6D,
00,
1A,
51,
12,
DE,
52,
57,
2D,
E1,
00,
00,
52,
00,
02,
8A,
0E,
64,
03,
1B,
00,
AA,
42,
00,
1B,
51,
04,
51,
04,
09,
0A,
2A,
51,
A5,
56,
15,
00,
1B,
49,
03,
08,
02,
1B,
01,
1E,
6C,
12,
36,
A9,
02,
C2,
A8,
00,
2F,
0E,
1B,
36,
1B,
1B,
00,
03,
1B,
1D,
03,
78,
33,
A4,
36,
59,
B4,
13,
30,
1B,
2A,
0C,
E7,
A5,
09,
06,
39,
0F,
07,
B1,
00,
4A,
AB,
57,
24,
36,
05,
51,
76,
03,
01,
1C,
01,
03,
1C,
01,
0A,
02,
06,
00,
2A,
01,
C0,
22,
3C,
5C,
1E,
04,
00,
01,
02,
00,
0D,
09,
6C,
01,
38,
09,
03,
24,
00,
51,
5D,
00,
DA,
0B,
CF,
00,
01,
04,
A2,
06,
2E,
24,
3C,
03,
0C,
01,
36,
07,
14,
53,
01,
54,
5B,
1C,
5C,
28,
81,
0D,
A5,
B7,
36,
5F,
04,
04,
02,
76,
00,
3F,
1D,
0F,
A2,
3F,
6C,
A2,
88,
8A,
8D,
01,
6C,
0F,
54,
00,
0F,
01,
A5,
00,
02,
09,
1B,
12,
1D,
56,
0A,
06,
00,
51,
12,
54,
AD,
A8,
D8,
1C,
00,
A2,
54,
1B,
57,
51,
03,
00,
23,
07,
09,
0C,
36,
03,
09,
02,
36,
5A,
76,
00,
55,
36,
03,
A8,
38,
55,
09,
00,
45,
15,
39,
1B,
15,
01,
02,
12,
AB,
BA,
0B,
65,
12,
C0,
00,
00,
27,
36,
AE,
01,
01,
5B,
07,
01,
BD,
18,
51,
AB,
3F,
20,
00,
66,
61,
0C,
39,
06,
30,
53,
16,
03,
36,
06,
02,
17,
5B,
1B,
3C,
02,
1D,
6F,
09,
3F,
13,
58,
00,
00,
E2,
60,
60,
57,
51,
5D,
52,
A6,
0C,
1C,
54,
00,
09,
00,
0F,
1B,
00,
42,
00,
1B,
01,
27,
09,
15,
00,
1F,
57,
6D,
17,
3A,
36,
22,
02,
03,
07,
00,
36,
18,
06,
2E,
00,
00,
A8,
13,
09,
36,
00,
21,
0B,
54,
1B,
18,
51,
B5,
59,
06,
1C,
12,
6D,
23,
06,
00,
A2,
15,
36,
6F,
06,
00,
07,
06,
00,
1E,
6C,
01,
09,
53,
02,
73,
52,
3D,
01,
63,
52,
51,
51,
1A,
3F,
2D,
0A,
08,
A2,
42,
01,
C0,
0C,
00,
37,
00,
1E,
02,
00,
09,
1D,
AB,
18,
1C,
48,
00,
36,
48,
01,
2E,
00,
23,
07,
03,
33,
AC,
00,
BD,
00,
6C,
05,
00,
06,
B7,
00,
51,
2D,
03,
1B,
77,
00,
BE,
00,
13,
08,
AF,
05,
24,
00,
53,
63,
36,
4E,
01,
07,
51,
A3,
42,
52,
BE,
48,
63,
00,
03,
00,
A8,
C3,
00,
09,
04,
54,
00,
55,
01,
00,
09,
00,
6C,
00,
1D,
24,
12,
D2,
24,
24,
59,
04,
00,
B1,
00,
00,
0C,
0B,
46,
6C,
02,
3A,
A6,
51,
51,
87,
02,
02,
12,
2D,
B7,
12,
20,
00,
A4,
24,
49,
69,
00,
05,
00,
1E,
00,
EA,
00,
25,
5A,
A2,
BD,
0F,
24,
03,
70,
0A,
01,
4E,
00,
51,
0D,
51,
00,
3A,
1F,
1C,
39,
1B,
00,
72,
04,
AB,
57,
00,
1B,
87,
3F,
03,
02,
02,
4B,
00,
00,
A2,
09,
1D,
09,
02,
0B,
02,
63,
09,
03,
A4,
57,
09,
01,
06,
00,
09,
37,
00,
00,
51,
09,
19,
CF,
A4,
12,
02,
00,
00,
03,
3F,
48,
00,
15,
1B,
00,
01,
AB,
38,
63,
52,
1B,
51,
03,
09,
5A,
B0,
08,
09,
18,
1E,
1B,
22,
0A,
1B,
09,
79,
1D,
A6,
01,
02,
A7,
1B,
0A,
3F,
1F,
00,
00,
01,
09,
0A,
03,
00,
A5,
BD,
00,
06,
0A,
02,
0F,
00,
1D,
12,
43,
A5,
03,
0F,
06,
13,
1E,
5F,
03,
BD,
06,
66,
6E,
0B,
02,
5B,
6D,
09,
51,
90,
91,
03,
14,
16,
AB,
03,
09,
B1,
01,
02,
03,
40,
6C,
B3,
71,
01,
00,
AB,
36,
09,
36,
1E,
00,
1B,
2A,
24,
09,
00,
00,
0F,
A3,
73,
01,
1B,
2E,
AC,
1C,
38,
E1,
06,
00,
39,
06,
6C,
14,
88,
02,
39,
D8,
02,
D8,
49,
02,
33,
0B,
53,
09,
02,
00,
01,
2D,
1B,
41,
41,
63,
93,
7E,
A2,
87,
A5,
A2,
02,
92,
12,
63,
CF,
06,
18,
36,
00,
51,
02,
06,
05,
00,
48,
39,
C2,
00,
A5,
0F,
04,
6E,
04,
36,
0A,
09,
06,
12,
12,
31,
06,
06,
5A,
A5,
11,
12,
2D,
36,
0A,
45,
BD,
AF,
54,
01,
00,
1B,
5A,
89,
03,
A2,
51,
51,
5B,
6C,
39,
54,
BD,
51,
8A,
00,
09,
51,
51,
00,
0F,
C3,
AB,
51,
40,
05,
51,
16,
1D,
00,
5B,
00,
09,
3F,
00,
51,
1B,
07,
03,
B1,
90,
2D,
23,
12,
00,
1B,
37,
12,
00,
A4,
00,
15,
4E,
C0,
01,
A2,
25,
08,
5A,
BD,
03,
55,
1F,
6A,
01,
24,
03,
59,
21,
15,
51,
A2,
5A,
14,
1B,
5A,
12,
54,
00,
02,
72,
09,
36,
01,
06,
87,
00,
00,
48,
00,
06,
38,
03,
70,
00,
19,
1B,
57,
84,
24,
00,
07,
06,
00,
D8,
1B,
00,
11,
1B,
00,
42,
03,
18,
5C,
24,
03,
13,
CF,
09,
A2,
03,
0C,
16,
03,
53,
1C,
09,
00,
53,
27,
5A,
41,
1B,
22,
00,
08,
06,
2D,
09,
01,
00,
51,
6C,
88,
16,
00,
54,
20,
87,
70,
8C,
5A,
09,
0A,
C7,
15,
40,
94,
B4,
51,
00,
51,
51,
01,
0A,
05,
1B,
36,
00,
03,
6D,
01,
1C,
D8,
1B,
30,
00,
38,
1B,
BE,
09,
6D,
02,
75,
0A,
00,
A2,
6C,
1C,
51,
5D,
00,
07,
01,
A6,
01,
01,
87,
00,
06,
57,
00,
09,
9B,
2D,
00,
9C,
B7,
05,
51,
00,
0A,
09,
4B,
18,
00,
90,
00,
09,
E1,
00,
DF,
BE,
34,
57,
51,
BD,
3D,
51,
36,
95,
89,
06,
75,
0B,
00,
00,
53,
00,
A4,
51,
C7,
15,
94,
00,
AB,
5C,
A3,
12,
01,
A2,
1E,
A2,
00,
1B,
51,
7E,
03,
03,
05,
91,
51,
01,
08,
58,
C3,
4E,
01,
16,
0C,
03,
00,
A2,
A3,
0A,
23,
00,
26,
3C,
55,
41,
51,
64,
12,
03,
01,
53,
75,
27,
1F,
09,
09,
51,
1E,
52,
1B,
0B,
18,
C0,
00,
01,
51,
11,
56,
04,
09,
66,
56,
08,
1C,
02,
BD,
00,
1E,
00,
06,
51,
37,
55,
0E,
02,
09,
2D,
51,
36,
A3,
01,
9B,
02,
12,
32,
02,
68,
21,
30,
6F,
21,
02,
3E,
06,
06,
3F,
1B,
63,
03,
3F,
76,
00,
00,
04,
1B,
AC,
01,
51,
00,
03,
02,
21,
87,
07,
A7,
00,
BD,
00,
09,
1C,
D9,
38,
01,
00,
5C,
00,
D8,
93,
A2,
6F,
06,
09,
03,
02,
37,
76,
15,
AB,
25,
51,
AC,
B7,
00,
69,
04,
A5,
03,
06,
00,
1B,
75,
2D,
00,
56,
51,
52,
78,
55,
01,
04,
A8,
1B,
1E,
03,
89,
02,
48,
24,
00,
09,
06,
00,
A3,
14,
1D,
D8,
BD,
57,
21,
03,
1B,
A2,
63,
1B,
06,
06,
00,
51,
00,
21,
24,
05,
46,
3B,
1B,
03,
01,
AD,
63,
07,
5A,
06,
01,
89,
02,
C0,
09,
CD,
06,
1B,
57,
00,
BD,
00,
25,
1E,
BD,
00,
1E,
13,
B0,
04,
51,
B7,
B6,
00,
05,
27,
00,
09,
20,
09,
30,
09,
A9,
01,
01,
C0,
A2,
8D,
09,
70,
36,
1C,
02,
A8,
00,
60,
04,
37,
3A,
1C,
0E,
36,
04,
37,
00,
36,
55,
2E,
53,
24,
1B,
21,
24,
12,
E2,
A1,
37,
2A,
63,
51,
5D,
36,
AB,
1D,
00,
BF,
1B,
A2,
00,
51,
09,
57,
00,
00,
D8,
DA,
6E,
12,
02,
01,
36,
5A,
B3,
1B,
C6,
CC,
6C,
58,
1B,
54,
1A,
02,
1D,
24,
00,
00,
2A,
C6,
18,
A6,
25,
A3,
00,
D9,
01,
26,
08,
00,
56,
00,
28,
19,
1F,
01,
03,
13,
24,
A2,
03,
02,
10,
12,
5B,
01,
94,
18,
2A,
6C,
51,
00,
A2,
B4,
06,
54,
18,
9E,
21,
39,
06,
51,
13,
21,
39,
88,
39,
7E,
20,
A2,
43,
03,
51,
1B,
A5,
3C,
0B,
00,
A8,
54,
BD,
B5,
14,
6C,
00,
13,
2E,
5D,
38,
0A,
0C,
A2,
21,
04,
0F,
1E,
28,
65,
01,
1B,
AB,
00,
28,
1B,
12,
09,
1B,
01,
A4,
1D,
03,
7E,
03,
09,
03,
48,
AC,
1C,
BD,
06,
5B,
12,
09,
04,
15,
00,
64,
00,
93,
36,
A2,
01,
02,
12,
1B,
A2,
A2,
00,
00,
B2,
00,
37,
48,
3F,
76,
52,
0C,
C8,
B8,
BD,
00,
12,
00,
A5,
3C,
1C,
09,
B4,
36,
5A,
1B,
1C,
02,
A2,
36,
0B,
07,
A2,
18,
A2,
00,
AB,
09,
0C,
54,
39,
01,
DC,
56,
15,
12,
BD,
01,
06,
36,
04,
0A,
A4,
00,
09,
51,
06,
21,
0F,
54,
0B,
06,
00,
3C,
2F,
03,
02,
A2,
EA,
04,
B1,
89,
01,
51,
2E,
49,
05,
00,
1D,
13,
06,
0A,
03,
00,
90,
09,
A2,
11,
00,
1C,
37,
00,
A5,
00,
07,
54,
13,
A2,
24,
88,
06,
04,
26,
00,
06,
81,
27,
B4,
36,
6C,
1B,
1B,
36,
51,
2D,
1C,
C0,
A2,
A3,
A4,
12,
24,
14,
55,
54,
00,
6F,
09,
2A,
12,
01,
00,
08,
00,
12,
43,
09,
00,
03,
2D,
88,
0C,
22,
06,
01,
3A,
1B,
00,
61,
12,
01,
53,
6C,
A2,
63,
88,
00,
03,
00,
B6,
03,
3C,
06,
3A,
12,
06,
52,
1C,
1B,
96,
36,
51,
00,
36,
D8,
AB,
09,
51,
14,
D9,
1A,
1B,
00,
36,
A5,
70,
A6,
1C,
8A,
51,
08,
51,
B4,
00,
87,
2E,
00,
6C,
53,
51,
00,
90,
37,
36,
1E,
0A,
27,
07,
32,
AB,
24,
09,
00,
09,
04,
00,
2D,
57,
36,
00,
56,
09,
06,
12,
00,
C0,
00,
51,
00,
1B,
00,
15,
76,
6C,
0A,
36,
00,
11,
03,
D9,
06,
A3,
00,
1B,
03,
A2,
BD,
03,
A3,
00,
04,
1B,
28,
82,
01,
10,
00,
6F,
00,
07,
12,
14,
5A,
36,
51,
00,
15,
36,
A4,
02,
33,
53,
01,
55,
09,
6C,
B1,
06,
3C,
00,
5C,
5A,
00,
03,
6C,
8A,
09,
09,
72,
5A,
6F,
70,
0C,
55,
03,
56,
55,
BD,
03,
37,
99,
01,
1E,
2E,
A2,
09,
00,
00,
6D,
54,
00,
02,
48,
03,
03,
BD,
A2,
D9,
00,
66,
6C,
05,
09,
00,
03,
AB,
70,
00,
0C,
00,
06,
11,
5A,
54,
E1,
2F,
06,
AB,
0C,
67,
01,
00,
08,
06,
0F,
6E,
55,
00,
00,
03,
1F,
24,
AE,
54,
03,
97,
12,
00,
2D,
8B,
06,
00,
63,
07,
01,
00,
51,
1F,
00,
39,
25,
02,
3F,
A5,
12,
C1,
1B,
37,
CF,
04,
00,
A2,
00,
A8,
03,
51,
3F,
5B,
0C,
18,
51,
30,
12,
05,
36,
00,
6C,
00,
51,
36,
0C,
14,
54,
00,
A4,
40,
1B,
63,
57,
6D,
00,
02,
22,
02,
00,
13,
63,
00,
54,
51,
00,
00,
70,
00,
51,
1B,
52,
00,
51,
63,
52,
60,
61,
06,
00,
39,
51,
00,
0A,
36,
0D,
58,
01,
00,
AB,
75,
36,
1B,
2E,
1E,
BE,
A5,
69,
51,
1B,
AE,
55,
6C,
52,
5B,
17,
06,
A2,
0A,
09,
0B,
D8,
00,
06,
00,
51,
12,
BF,
03,
06,
06,
04,
A2,
0E,
1C,
14,
75,
70,
09,
36,
A5,
5A,
03,
78,
04,
00,
45,
51,
03,
01,
01,
01,
03,
52,
00,
DA,
00,
18,
51,
00,
A2,
65,
1C,
70,
37,
00,
AA,
03,
36,
07,
1B,
14,
0F,
03,
09,
1B,
D9,
B4,
76,
00,
00,
39,
B4,
63,
52,
0A,
3F,
A5,
4A,
04,
BD,
1C,
01,
4A,
06,
B7,
00,
5A,
AB,
38,
01,
02,
53,
00,
12,
14,
36,
A2,
60,
01,
00,
A2,
D8,
07,
51,
09,
36,
27,
1B,
00,
0E,
00,
03,
0C,
51,
0D,
03,
5D,
75,
25,
0F,
1B,
2A,
1C,
6D,
52,
5A,
1E,
51,
1C,
04,
09,
A2,
03,
38,
02,
06,
30,
39,
09,
00,
04,
5A,
45,
00,
3C,
52,
1C,
64,
0F,
24,
01,
00,
8A,
A2,
61,
30,
A7,
00,
12,
75,
06,
00,
17,
87,
42,
48,
3A,
87,
00,
1B,
BE,
01,
15,
02,
00,
57,
01,
12,
A2,
00,
52,
0A,
A3,
D8,
BD,
A2,
48,
36,
91,
66,
01,
C6,
03,
94,
48,
01,
57,
A2,
06,
00,
5A,
AC,
8D,
AA,
13,
00,
E2,
04,
00,
3F,
00,
3C,
03,
21,
00,
30,
0D,
00,
30,
2D,
09,
51,
24,
00,
06,
27,
02,
18,
0B,
55,
1B,
24,
1E,
02,
01,
03,
02,
0A,
01,
3C,
06,
10,
6F,
A2,
00,
00,
01,
6C,
00,
A6,
51,
00,
C0,
0C,
06,
A5,
00,
00,
36,
03,
51,
00,
B4,
00,
14,
0C,
39,
51,
99,
53,
73,
03,
95,
02,
7C,
2D,
75,
1B,
06,
03,
A2,
09,
24,
3F,
0C,
1B,
38,
15,
00,
12,
06,
01,
00,
3B,
12,
3C,
03,
00,
0E,
21,
15,
3F,
14,
51,
38,
09,
09,
01,
24,
AB,
AB,
37,
0D,
54,
04,
46,
3A,
54,
15,
0C,
BD,
51,
00,
63,
90,
25,
A2,
12,
D9,
12,
36,
51,
09,
07,
B5,
A3,
08,
36,
02,
00,
40,
00,
06,
2B,
71,
00,
02,
00,
00,
0A,
1B,
00,
12,
00,
21,
00,
E7,
24,
42,
1B,
A8,
00,
12,
09,
2D,
15,
0C,
05,
04,
03,
02,
1B,
12,
1C,
09,
00,
0C,
12,
06,
09,
D8,
54,
00,
73,
41,
06,
00,
21,
A5,
00,
09,
1E,
6F,
55,
1B,
00,
A6,
BD,
02,
A2,
09,
54,
00,
27,
5D,
37,
0C,
03,
51,
05,
58,
45,
0D,
01,
17,
1B,
02,
A2,
25,
51,
0A,
00,
12,
00,
01,
39,
12,
6C,
43,
00,
06,
00,
36,
28,
00,
0F,
67,
57,
A2,
57,
24,
0F,
01,
0C,
0F,
1B,
27,
52,
04,
1E,
09,
03,
0A,
1B,
01,
51,
0C,
1E,
79,
01,
51,
51,
54,
81,
0A,
12,
54,
54,
0C,
39,
05,
00,
00,
27,
00,
00,
0D,
5D,
70,
1E,
25,
28,
09,
21,
04,
A3,
33,
04,
00,
75,
00,
38,
5A,
04,
15,
1E,
A5,
00,
25,
EB,
24,
C9,
00,
6F,
54,
06,
51,
A6,
87,
29,
01,
00,
1E,
01,
0B,
5A,
52,
09,
6C,
00,
51,
0B,
03,
78,
42,
75,
65,
5A,
25,
03,
5B,
D8,
11,
09,
1E,
09,
1E,
13,
57,
51,
55,
04,
57,
06,
6F,
28,
03,
51,
12,
6C,
54,
00,
00,
1B,
54,
0C,
00,
27,
1B,
03,
03,
09,
00,
03,
6C,
01,
36,
00,
24,
5A,
19,
A2,
51,
04,
75,
1B,
DB,
1B,
51,
1E,
09,
A2,
09,
51,
09,
0A,
0C,
1E,
01,
5A,
01,
00,
01,
51,
1F,
0A,
1B,
1B,
5D,
0C,
1E,
00,
06,
12,
36,
0F,
01,
00,
87,
38,
BF,
75,
15,
69,
12,
1C,
03,
00,
09,
A8,
BE,
12,
01,
03,
52,
43,
31,
24,
16,
54,
06,
0A,
36,
03,
12,
36,
36,
11,
1B,
00,
27,
25,
B6,
8A,
51,
09,
01,
54,
06,
1D,
12,
09,
16,
36,
03,
00,
00,
0A,
57,
6D,
00,
04,
36,
02,
1B,
00,
06,
3B,
36,
51,
56,
00,
02,
1E,
23,
07,
36,
72,
3F,
6C,
04,
5A,
56,
02,
78,
24,
0F,
41,
00,
40,
AA,
A9,
60,
5A,
A8,
09,
75,
00,
00,
01,
03,
0E,
00,
26,
00,
51,
5D,
03,
4C,
1D,
36,
12,
12,
0B,
D5,
0C,
91,
00,
12,
18,
01,
D9,
06,
00,
17,
00,
00,
A8,
5C,
51,
80,
06,
13,
08,
AB,
00,
52,
00,
75,
06,
00,
1D,
51,
03,
D8,
2D,
01,
C0,
00,
09,
14,
09,
01,
AF,
04,
15,
02,
00,
52,
52,
15,
00,
0A,
BE,
58,
04,
51,
2A,
13,
75,
09,
75,
1B,
51,
03,
5C,
06,
09,
2B,
A2,
E1,
8D,
01,
1C,
6C,
51,
04,
51,
54,
00,
B4,
00,
6C,
1F,
09,
1B,
1C,
B5,
06,
54,
00,
E2,
03,
00,
00,
4E,
33,
06,
0F,
15,
17,
14,
12,
3C,
00,
EA,
15,
6C,
22,
1B,
00,
12,
3E,
09,
57,
24,
0C,
41,
00,
6C,
A2,
01,
B4,
03,
01,
00,
BA,
0D,
6C,
75,
6C,
51,
00,
57,
05,
01,
03,
03,
09,
03,
1C,
51,
A5,
1C,
C6,
AB,
09,
00,
52,
71,
03,
57,
B6,
0C,
6D,
51,
5A,
D8,
A3,
36,
0A,
51,
A5,
06,
37,
01,
05,
00,
06,
A2,
2D,
12,
1B,
12,
D8,
6C,
51,
3A,
A2,
00,
57,
02,
15,
6C,
00,
04,
02,
03,
21,
00,
01,
14,
8E,
48,
39,
04,
0A,
00,
57,
81,
01,
52,
01,
01,
58,
6C,
09,
54,
04,
27,
1B,
52,
03,
00,
00,
6C,
00,
5B,
03,
01,
00,
55,
1E,
24,
28,
09,
01,
00,
01,
1B,
09,
1B,
27,
24,
5A,
69,
12,
00,
6C,
1B,
0B,
27,
03,
5C,
00,
48,
01,
BD,
51,
27,
00,
1D,
5D,
02,
56,
1B,
6D,
00,
E2,
06,
04,
00,
0F,
00,
01,
5A,
1E,
75,
AE,
13,
55,
6C,
00,
70,
01,
2F,
75,
52,
5B,
5D,
54,
09,
27,
6C,
09,
5D,
24,
54,
1B,
09,
CA,
67,
00,
51,
03,
54,
BA,
06,
00,
63,
0D,
A3,
06,
38,
03,
1C,
51,
3C,
01,
57,
69,
5B,
00,
6E,
36,
36,
51,
5A,
75,
A4,
6C,
1A,
1B,
70,
03,
06,
09,
24,
54,
13,
00,
09,
1B,
09,
1C,
00,
12,
37,
00,
51,
09,
54,
66,
54,
1B,
6F,
0A,
54,
6C,
1F,
03,
0C,
1B,
1C,
00,
03,
5A,
5A,
0A,
0F,
5B,
25,
54,
6C,
AE,
26,
01,
21,
07,
1E,
90,
54,
51,
13,
01,
1E,
54,
1B,
02,
5A,
06,
1B,
52,
00,
01,
E0,
0A,
60,
6C,
28,
AB,
1F,
00,
00,
37,
53,
0C,
00,
36,
00,
00,
00,
0E,
4A,
12,
07,
09,
09,
09,
18,
3C,
05,
51,
63,
00,
AB,
2D,
06,
1C,
0A,
D8,
00,
09,
09,
1E,
A3,
1D,
36,
20,
37,
36,
09,
03,
36,
87,
1B,
54,
09,
00,
60,
63,
03,
18,
98,
63,
56,
87,
00,
12,
00,
00,
13,
13,
A2,
12,
57,
0F,
A2,
37,
03,
00,
57,
6D,
03,
00,
00,
A5,
52,
51,
00,
00,
09,
00,
02,
1E,
0B,
7B,
AF,
5E,
03,
00,
09,
00,
2D,
60,
09,
09,
15,
42,
00,
57,
04,
03,
6F,
49,
02,
00,
D2,
1D,
38,
00,
0A,
BF,
6C,
03,
00,
09,
89,
25,
00,
06,
27,
00,
01,
24,
51,
00,
04,
88,
1F,
1A,
00,
15,
12,
3B,
03,
18,
30,
03,
00,
1F,
A2,
36,
00,
03,
00,
00,
AC,
00,
52,
54,
53,
00,
1F,
A3,
03,
07,
87,
36,
87,
1B,
27,
5A,
00,
04,
0C,
00,
09,
00,
02,
00,
15,
05,
00,
22,
6C,
48,
36,
1B,
37,
05,
03,
0C,
18,
12,
09,
B4,
21,
07,
09,
51,
51,
02,
1C,
0D,
03,
00,
57,
D9,
37,
A5,
01,
1B,
A2,
1B,
1B,
53,
09,
05,
06,
18,
CF,
28,
04,
E1,
18,
01,
4A,
00,
04,
48,
12,
01,
1B,
1B,
1B,
58,
12,
01,
26,
BE,
00,
60,
51,
54,
12,
51,
2D,
AB,
C3,
09,
F0,
3E,
63,
08,
12,
00,
05,
AB,
37,
02,
04,
87,
6C,
00,
0E,
BE,
1F,
01,
DF,
5A,
00,
00,
5C,
3F,
01,
1F,
57,
12,
87,
1E,
6C,
02,
00,
39,
1B,
36,
01,
33,
03,
66,
51,
00,
12,
1B,
05,
6D,
53,
00,
12,
37,
00,
57,
05,
01,
2C,
26,
6F,
54,
54,
39,
09,
1E,
00,
14,
88,
54,
1B,
A4,
28,
13,
00,
51,
58,
00,
14,
63,
54,
B1,
A2,
40,
25,
1B,
00,
00,
5D,
48,
3A,
21,
00,
2F,
07,
52,
36,
80,
09,
A2,
87,
78,
45,
00,
6C,
70,
00,
0A,
12,
03,
1B,
04,
24,
00,
B2,
3F,
02,
08,
AE,
12,
83,
BD,
87,
49,
16,
6C,
1C,
06,
02,
00,
54,
02,
13,
57,
19,
D9,
02,
36,
A3,
15,
08,
2A,
53,
08,
04,
08,
3F,
1B,
65,
06,
13,
64,
09,
E2,
00,
1B,
40,
0B,
00,
09,
07,
53,
54,
51,
36,
1D,
60,
1C,
1B,
51,
06,
04,
AB,
1C,
01,
00,
03,
1B,
55,
A2,
00,
00,
03,
36,
69,
09,
8D,
B4,
DB,
54,
01,
00,
07,
1B,
07,
00,
09,
36,
5E,
76,
7E,
42,
06,
0F,
0F,
39,
01,
0C,
09,
42,
01,
00,
57,
08,
73,
07,
A2,
07,
1C,
02,
14,
36,
00,
00,
1B,
0C,
12,
04,
1E,
8D,
03,
09,
00,
03,
18,
0C,
20,
09,
00,
69,
22,
6F,
00,
54,
00,
1E,
6F,
06,
00,
01,
00,
12,
21,
51,
25,
63,
AB,
1B,
5A,
64,
37,
0B,
BE,
00,
1B,
54,
5B,
51,
76,
20,
3C,
0C,
24,
1B,
00,
01,
1B,
A3,
24,
03,
01,
A4,
5A,
6C,
00,
BD,
AC,
00,
1C,
03,
C3,
BE,
18,
23,
56,
12,
1E,
15,
81,
00,
0A,
52,
2A,
01,
12,
A5,
01,
1E,
AF,
09,
04,
00,
03,
54,
1B,
2F,
B6,
06,
6F,
01,
77,
4A,
00,
01,
1D,
01,
A8,
05,
0C,
01,
51,
A8,
36,
51,
2A,
1E,
1C,
A2,
51,
03,
72,
3F,
51,
C6,
00,
00,
87,
53,
36,
64,
B4,
07,
1D,
1E,
52,
1F,
AE,
5A,
51,
00,
15,
90,
09,
00,
03,
51,
54,
AE,
00,
07,
1B,
0A,
00,
60,
6F,
6D,
1E,
52,
1E,
36,
00,
0C,
6C,
53,
0E,
1F,
02,
09,
00,
72,
97,
09,
01,
54,
04,
19,
01,
1C,
A2,
B1,
1E,
1B,
25,
A2,
DE,
00,
01,
52,
1B,
48,
AA,
0B,
A2,
00,
01,
