memory_initialization_radix=16;
memory_initialization_vector=
00,
00,
00,
00,
00,
00,
00,
00,
00,
00,
00,
00,
00,
00,
00,
00,
00,
00,
00,
00,
36,
00,
00,
00,
00,
00,
06,
00,
00,
00,
6C,
28,
00,
00,
00,
00,
51,
00,
13,
00,
00,
00,
51,
00,
06,
00,
00,
00,
0A,
AE,
00,
A2,
09,
64,
04,
12,
00,
00,
1E,
24,
24,
02,
36,
00,
EA,
6C,
01,
00,
00,
00,
1A,
51,
01,
00,
5B,
EA,
AA,
27,
00,
51,
04,
50,
00,
04,
00,
24,
D9,
08,
75,
00,
1B,
03,
50,
1B,
00,
00,
0C,
A6,
23,
1B,
00,
00,
75,
4E,
00,
03,
00,
6C,
1C,
18,
06,
00,
00,
04,
0D,
00,
02,
00,
51,
51,
00,
14,
00,
00,
02,
5B,
00,
00,
00,
00,
51,
28,
D8,
00,
00,
00,
51,
01,
18,
00,
00,
A2,
F2,
50,
00,
00,
00,
00,
00,
00,
00,
00,
00,
00,
00,
00,
00,
1C,
1B,
00,
03,
01,
5A,
00,
00,
01,
09,
51,
03,
04,
6C,
01,
00,
00,
24,
00,
00,
00,
00,
0C,
00,
00,
00,
00,
1B,
03,
36,
08,
00,
04,
09,
01,
AA,
DA,
00,
00,
04,
48,
06,
3E,
00,
24,
00,
BC,
A8,
00,
06,
00,
A2,
A4,
03,
F2,
00,
01,
18,
75,
B5,
08,
1B,
A2,
A8,
28,
48,
00,
00,
00,
74,
A3,
00,
09,
00,
D8,
27,
13,
00,
00,
00,
69,
A6,
08,
00,
09,
DE,
26,
F1,
02,
00,
D8,
02,
A6,
50,
00,
03,
4E,
72,
4E,
02,
00,
D8,
02,
E1,
00,
00,
00,
18,
00,
00,
00,
03,
01,
00,
00,
0D,
51,
09,
0A,
09,
00,
03,
00,
54,
0D,
4E,
24,
00,
79,
6C,
00,
51,
01,
00,
1E,
00,
B4,
1A,
00,
00,
03,
A2,
36,
00,
09,
00,
00,
00,
00,
00,
5D,
51,
54,
03,
01,
51,
00,
00,
00,
00,
00,
00,
00,
00,
00,
00,
00,
00,
00,
00,
00,
00,
00,
00,
00,
75,
01,
BA,
00,
00,
51,
5B,
A2,
F0,
00,
00,
54,
51,
00,
18,
00,
00,
00,
01,
A8,
02,
00,
01,
09,
36,
48,
00,
1B,
24,
00,
00,
1A,
00,
00,
52,
01,
DE,
02,
00,
00,
06,
00,
18,
00,
D8,
F2,
3E,
00,
00,
A2,
F2,
F2,
00,
12,
00,
F0,
08,
00,
12,
00,
A2,
08,
1B,
00,
57,
01,
00,
1B,
03,
36,
26,
00,
0C,
1C,
1C,
09,
04,
6C,
00,
0D,
00,
70,
00,
0C,
51,
55,
00,
0D,
00,
6C,
6C,
03,
5A,
00,
75,
6D,
00,
5D,
09,
00,
00,
0A,
51,
6D,
00,
00,
79,
A2,
1B,
03,
00,
00,
1B,
00,
24,
00,
00,
1A,
02,
00,
00,
00,
00,
F2,
08,
1A,
00,
00,
00,
00,
06,
00,
00,
00,
00,
00,
00,
00,
00,
00,
00,
00,
00,
00,
00,
00,
00,
00,
00,
00,
00,
00,
00,
00,
00,
00,
00,
00,
01,
36,
00,
00,
5A,
0D,
0A,
18,
00,
6C,
01,
1B,
A2,
08,
00,
54,
1B,
03,
D8,
00,
1B,
00,
09,
00,
18,
00,
0C,
00,
52,
A2,
02,
1B,
00,
1D,
6C,
EB,
00,
00,
F2,
00,
01,
06,
00,
F0,
1B,
0A,
D9,
00,
D8,
06,
24,
A2,
08,
00,
08,
51,
00,
4E,
00,
A2,
A4,
1D,
00,
00,
00,
00,
1A,
00,
09,
00,
00,
36,
1D,
21,
09,
00,
00,
EA,
14,
0A,
37,
00,
A6,
F2,
77,
1C,
00,
5A,
00,
00,
1E,
D9,
00,
6C,
A2,
00,
0A,
06,
51,
03,
00,
03,
D8,
00,
00,
00,
02,
01,
00,
00,
03,
03,
00,
00,
00,
00,
5E,
25,
36,
00,
00,
00,
5E,
01,
00,
00,
00,
00,
00,
00,
00,
00,
00,
00,
00,
00,
00,
00,
00,
00,
00,
00,
24,
00,
00,
00,
00,
51,
00,
00,
00,
00,
00,
00,
00,
00,
D8,
02,
00,
00,
00,
A2,
EC,
6C,
0D,
00,
01,
A2,
00,
6C,
01,
54,
00,
B4,
14,
0C,
01,
09,
EA,
50,
18,
04,
00,
36,
DA,
08,
00,
00,
A2,
36,
4E,
00,
00,
00,
12,
BD,
02,
A2,
00,
00,
6C,
4C,
04,
12,
00,
51,
76,
21,
00,
00,
00,
51,
0D,
0A,
04,
1B,
75,
79,
58,
0A,
00,
03,
51,
25,
28,
00,
1B,
00,
0C,
6C,
0D,
00,
00,
51,
01,
79,
A2,
00,
00,
00,
02,
03,
12,
00,
00,
4E,
02,
F0,
02,
00,
EA,
AA,
00,
02,
00,
01,
08,
00,
00,
00,
09,
A2,
AA,
06,
03,
1B,
00,
00,
00,
00,
04,
09,
00,
00,
00,
00,
00,
00,
00,
48,
F2,
00,
1B,
03,
00,
36,
00,
1B,
00,
00,
00,
00,
00,
0C,
00,
00,
00,
00,
00,
00,
00,
00,
00,
00,
00,
00,
00,
00,
00,
00,
00,
00,
00,
AA,
00,
00,
00,
D8,
08,
02,
01,
00,
00,
08,
12,
0B,
24,
00,
12,
00,
A2,
09,
09,
A2,
08,
03,
00,
75,
04,
EA,
1B,
13,
00,
76,
00,
1A,
1B,
48,
51,
0D,
A2,
02,
25,
F0,
6C,
01,
00,
78,
3A,
EA,
26,
00,
09,
27,
EC,
F0,
02,
00,
00,
AB,
02,
F2,
00,
00,
5A,
A8,
3C,
00,
00,
08,
A2,
1D,
00,
02,
36,
AA,
D8,
00,
00,
00,
AB,
F2,
02,
00,
00,
00,
D9,
06,
1E,
01,
00,
1B,
01,
00,
1B,
01,
00,
1C,
03,
09,
09,
00,
00,
0D,
1B,
51,
01,
00,
12,
51,
09,
00,
00,
00,
00,
03,
01,
00,
00,
36,
54,
04,
00,
00,
00,
00,
00,
00,
00,
00,
00,
06,
00,
06,
00,
00,
00,
00,
00,
00,
00,
00,
00,
00,
00,
00,
00,
00,
51,
00,
00,
00,
00,
1B,
79,
78,
04,
00,
00,
75,
27,
09,
04,
00,
00,
36,
06,
6F,
00,
00,
00,
A4,
24,
09,
00,
00,
4E,
08,
02,
00,
00,
3C,
38,
DE,
14,
00,
A2,
A2,
F2,
50,
08,
00,
00,
F0,
F0,
E0,
08,
00,
00,
D8,
50,
E0,
00,
00,
00,
19,
02,
13,
00,
5A,
C6,
A4,
75,
00,
51,
00,
01,
02,
0D,
00,
5A,
09,
00,
6C,
00,
36,
04,
01,
00,
24,
00,
72,
27,
36,
00,
00,
A2,
1B,
5E,
00,
00,
00,
12,
0D,
55,
55,
00,
00,
02,
28,
0D,
01,
00,
A2,
6E,
70,
00,
00,
00,
48,
75,
55,
01,
00,
00,
18,
25,
01,
00,
00,
00,
DE,
00,
00,
00,
00,
00,
EA,
08,
00,
00,
00,
00,
00,
00,
00,
00,
00,
00,
00,
00,
00,
00,
00,
00,
00,
00,
00,
00,
00,
00,
00,
00,
00,
00,
00,
00,
00,
00,
00,
00,
00,
00,
00,
00,
00,
00,
00,
00,
00,
00,
00,
A2,
02,
00,
00,
00,
00,
B4,
50,
00,
00,
5A,
0C,
00,
00,
00,
00,
1B,
04,
0C,
00,
00,
55,
6F,
09,
0A,
00,
6C,
52,
5A,
28,
00,
00,
28,
00,
78,
6C,
00,
6C,
01,
03,
78,
0C,
00,
27,
0C,
4E,
5E,
00,
51,
0D,
DE,
08,
09,
00,
1B,
00,
4E,
6C,
01,
00,
00,
A8,
02,
70,
01,
00,
00,
50,
71,
00,
00,
00,
EA,
1D,
00,
00,
00,
D8,
BC,
36,
D8,
00,
00,
18,
08,
3E,
18,
00,
A2,
EC,
A2,
F2,
02,
00,
4E,
A4,
A4,
50,
00,
00,
36,
14,
A8,
08,
00,
51,
A2,
00,
F0,
00,
00,
04,
00,
00,
00,
00,
00,
75,
01,
00,
00,
00,
00,
5E,
79,
00,
00,
00,
00,
00,
00,
00,
00,
00,
00,
00,
00,
00,
00,
00,
00,
00,
00,
00,
00,
00,
00,
00,
00,
00,
00,
00,
14,
00,
00,
00,
00,
6F,
00,
00,
00,
48,
00,
00,
00,
00,
00,
06,
00,
36,
00,
00,
00,
00,
2D,
51,
03,
00,
1B,
51,
00,
51,
01,
00,
04,
D8,
00,
09,
00,
02,
54,
48,
0D,
00,
00,
78,
75,
00,
24,
00,
00,
00,
03,
75,
0D,
00,
00,
75,
0C,
00,
00,
00,
3C,
0A,
00,
1A,
00,
12,
51,
04,
12,
08,
A2,
02,
5A,
A6,
1A,
02,
00,
5A,
01,
06,
36,
00,
02,
0C,
02,
00,
06,
36,
00,
00,
00,
00,
00,
59,
00,
00,
6C,
06,
A2,
03,
00,
06,
00,
00,
00,
00,
09,
00,
00,
00,
08,
51,
0A,
00,
00,
A2,
02,
52,
1C,
00,
00,
4E,
08,
00,
00,
00,
00,
00,
02,
00,
00,
00,
00,
00,
00,
00,
00,
00,
00,
00,
00,
00,
00,
00,
00,
00,
00,
00,
00,
00,
00,
00,
00,
00,
00,
00,
00,
00,
00,
00,
00,
00,
EA,
02,
00,
00,
00,
00,
12,
06,
00,
00,
18,
1B,
0D,
06,
00,
D8,
51,
28,
A2,
02,
00,
02,
63,
1C,
36,
00,
00,
1B,
09,
00,
08,
00,
00,
00,
00,
01,
00,
51,
09,
01,
5E,
01,
00,
78,
AE,
1E,
6D,
00,
51,
0A,
6C,
55,
04,
00,
5A,
00,
1B,
00,
06,
00,
00,
00,
26,
A2,
00,
00,
00,
00,
D8,
14,
00,
00,
00,
09,
A8,
02,
00,
38,
00,
36,
3C,
00,
00,
12,
A4,
08,
02,
00,
EA,
50,
1A,
18,
00,
00,
B4,
E0,
08,
00,
00,
D8,
00,
D8,
08,
00,
00,
A2,
00,
12,
09,
00,
00,
00,
18,
6C,
01,
00,
51,
03,
5B,
0D,
00,
00,
6C,
79,
0D,
00,
00,
00,
00,
00,
00,
00;