memory_initialization_radix=16;
memory_initialization_vector=
00000000001C00000000,
00000000000000005400,
00000000000000000900,
00000000000000000900,
00000000000300001B00,
00000000000000000300,
00000000000000000100,
00000000000000006C00,
00000000000000000100,
00000000000000000000,
00000000000000006C00,
00000000000000001E00,
0000006C000000002800,
00A20078000000005100,
00000070000000002800,
0000000D000000000000,
00000000000300000000,
00000000000000000900,
0000005A000000510000,
00A2005BECF01B0D0000,
0000001B0200000000A2,
0000000C000006060000,
00000000000000005100,
00000000360000000000,
0000A20008EA790C0000,
F003BC12024E25030000,
000000510175D9EA0012,
00020001000102080000,
00000000000000000900,
000000000801091BD800,
0009DE4E0000011B1A00,
060CEC6E245100000027,
000002002575EAD80C02,
00000000000900000000,
00A20000B42451000000,
06001F3600A21B014E12,
5D1B00A800F25151A80C,
0409001A090000000251,
020000000A0418185113,
00000000A20000000100,
4E0024A25903035AA2A2,
6C0054D8004E1B00B651,
28056C0006BC0436BA1B,
005A003E5157A2A2001B,
00000000040102020006,
A2002400EA006C000100,
061E280809000351F000,
6C0055DA00EA00000200,
0A0009F200AA0012005B,
0025004E750048EA1AAB,
00000000000000002400,
060004361A0003090000,
510451BA2412D8090809,
001278EC481A5A002701,
000301BC6C002700DE04,
020100080D00081A1D13,
00007500A20000000300,
035401005A06A2000600,
0C016C0028E16B366C00,
020855BCEA001E003A26,
000004BA6C48A3D81A24,
00000002010000000902,
00510D000600A2A20036,
78281B006F241AF20812,
510C754B396A095078EA,
6D001F06EA370402D800,
00030039260618060003,
00006C00000000000300,
5D006D1B756CF0F20000,
3651EA1B272700F26900,
6F017708480B01E00450,
2479006EF000EAA2026C,
00010001025100000001,
6C002700000036D80900,
00001201005B021AA252,
1B5D50030D5527AB77ED,
6D000000025AA2064BA4,
0000002750001A000027,
00000000000000005100,
03A2011B0078EA4E0051,
0923D81F097836004854,
0C01081BD87725A30D50,
01A20D510604A2361A00,
080001011A0006090004,
000000A2000100000900,
003EDE1E02513600A225,
0051BA0C0103001E6ED9,
09002400020D0000EE08,
36B60D1E12000065021B,
00000000020000010000,
00120063A200006C031B,
1E51D879140306090803,
06041409B424A50C0CF2,
A3F00A0000030352501B,
064A0000000001240000,
00000000000000000900,
1208D853D851A20DEA1E,
000A1A28DE51500163A6,
03A2000053281D00EB08,
D800000000361C1B0800,
00060000000006040000,
A23600D800006C6C0100,
061BE024A3A2D8031A75,
0001060C00751A0C1B4E,
1200000A0013251C0800,
18A2080000063A750003,
00000000000300000C00,
1202D81824000A51481B,
06094A7501F0D809000A,
0600121E00006C521C18,
3600EC0309DA01010006,
00000000010006030000,
00A20000000051000100,
EA0050001CF01E280052,
F206065D03501203000C,
0606F20100A21B511B06,
060C1A120900A3540000,
00020000000000001B00,
0063A2D800A200511B00,
D800146C6C38005A1B6C,
0602365E000051000801,
5000EC04510003090314,
00000200015118041B00,
00000000000000000000,
4800004812D803750C0B,
0009B66F5138000DEA54,
A201D803000000516C00,
020050000001A3240000,
00000000000000000000,
00A20000000051005400,
380000B4510004000151,
AA750602000000000025,
0052EA001355096C04D8,
0300080000011A010000,
00000000005100000300,
00F0750036006CEA0000,
000009F06F0076123653,
061E001A040000003C04,
75040000000000000018,
00000000000000000000,
00000000000900000300,
24E06C0000006CF000A2,
6D000D001EF028F2AAF2,
6C001B0000BA00EA001A,
04000000000000000900,
00000000001E00000100,
00000000000900000000,
78362400060000000000,
79D87800004800000000,
04000D00060000000000,
00000000000000000000,
00000000000000000300,
00000000000000000900,
00000000000000005100,
00000000000000000000,
00000000000000000000,
00000000000000001C00;